/* Copyright 2019 The TensorFlow Authors. All Rights Reserved.

Licensed under the Apache License, Version 2.0 (the "License");
you may not use this file except in compliance with the License.
You may obtain a copy of the License at

    http://www.apache.org/licenses/LICENSE-2.0

Unless required by applicable law or agreed to in writing, software
distributed under the License is distributed on an "AS IS" BASIS,
WITHOUT WARRANTIES OR CONDITIONS OF ANY KIND, either express or implied.
See the License for the specific language governing permissions and
limitations under the License.
==============================================================================*/

// Automatically created from a TensorFlow Lite flatbuffer using the command:
// xxd -i magic_wand_model.tflite > magic_wand_model_data.cc
// See the README for a full description of the creation process.

// We need to keep the data array aligned on some architectures.
#ifdef __has_attribute
#define HAVE_ATTRIBUTE(x) __has_attribute(x)
#else
#define HAVE_ATTRIBUTE(x) 0
#endif
#if HAVE_ATTRIBUTE(aligned) || (defined(__GNUC__) && !defined(__clang__))
#define DATA_ALIGN_ATTRIBUTE __attribute__((aligned(4)))
#else
#define DATA_ALIGN_ATTRIBUTE
#endif

const unsigned char g_tof_detector_model_data[] DATA_ALIGN_ATTRIBUTE = {
0x1c, 0x00, 0x00, 0x00, 0x54, 0x46, 0x4c, 0x33, 0x14, 0x00, 0x20, 0x00, 
0x1c, 0x00, 0x18, 0x00, 0x14, 0x00, 0x10, 0x00, 0x0c, 0x00, 0x00, 0x00, 
0x08, 0x00, 0x04, 0x00, 0x14, 0x00, 0x00, 0x00, 0x1c, 0x00, 0x00, 0x00, 
0x90, 0x00, 0x00, 0x00, 0xe8, 0x00, 0x00, 0x00, 0xb4, 0x28, 0x00, 0x00, 
0xc4, 0x28, 0x00, 0x00, 0x94, 0x33, 0x00, 0x00, 0x03, 0x00, 0x00, 0x00, 
0x01, 0x00, 0x00, 0x00, 0x04, 0x00, 0x00, 0x00, 0xf2, 0xd5, 0xff, 0xff, 
0x0c, 0x00, 0x00, 0x00, 0x1c, 0x00, 0x00, 0x00, 0x3c, 0x00, 0x00, 0x00, 
0x0f, 0x00, 0x00, 0x00, 0x73, 0x65, 0x72, 0x76, 0x69, 0x6e, 0x67, 0x5f, 
0x64, 0x65, 0x66, 0x61, 0x75, 0x6c, 0x74, 0x00, 0x01, 0x00, 0x00, 0x00, 
0x04, 0x00, 0x00, 0x00, 0x8c, 0xff, 0xff, 0xff, 0x13, 0x00, 0x00, 0x00, 
0x04, 0x00, 0x00, 0x00, 0x08, 0x00, 0x00, 0x00, 0x64, 0x65, 0x6e, 0x73, 
0x65, 0x5f, 0x36, 0x34, 0x00, 0x00, 0x00, 0x00, 0x01, 0x00, 0x00, 0x00, 
0x04, 0x00, 0x00, 0x00, 0xfa, 0xd5, 0xff, 0xff, 0x04, 0x00, 0x00, 0x00, 
0x10, 0x00, 0x00, 0x00, 0x72, 0x65, 0x73, 0x68, 0x61, 0x70, 0x65, 0x5f, 
0x36, 0x34, 0x5f, 0x69, 0x6e, 0x70, 0x75, 0x74, 0x00, 0x00, 0x00, 0x00, 
0x02, 0x00, 0x00, 0x00, 0x34, 0x00, 0x00, 0x00, 0x04, 0x00, 0x00, 0x00, 
0xdc, 0xff, 0xff, 0xff, 0x16, 0x00, 0x00, 0x00, 0x04, 0x00, 0x00, 0x00, 
0x13, 0x00, 0x00, 0x00, 0x43, 0x4f, 0x4e, 0x56, 0x45, 0x52, 0x53, 0x49, 
0x4f, 0x4e, 0x5f, 0x4d, 0x45, 0x54, 0x41, 0x44, 0x41, 0x54, 0x41, 0x00, 
0x08, 0x00, 0x0c, 0x00, 0x08, 0x00, 0x04, 0x00, 0x08, 0x00, 0x00, 0x00, 
0x15, 0x00, 0x00, 0x00, 0x04, 0x00, 0x00, 0x00, 0x13, 0x00, 0x00, 0x00, 
0x6d, 0x69, 0x6e, 0x5f, 0x72, 0x75, 0x6e, 0x74, 0x69, 0x6d, 0x65, 0x5f, 
0x76, 0x65, 0x72, 0x73, 0x69, 0x6f, 0x6e, 0x00, 0x17, 0x00, 0x00, 0x00, 
0xc8, 0x27, 0x00, 0x00, 0xc0, 0x27, 0x00, 0x00, 0x98, 0x27, 0x00, 0x00, 
0xb0, 0x26, 0x00, 0x00, 0x9c, 0x26, 0x00, 0x00, 0x88, 0x26, 0x00, 0x00, 
0x74, 0x26, 0x00, 0x00, 0x60, 0x26, 0x00, 0x00, 0x4c, 0x26, 0x00, 0x00, 
0x34, 0x26, 0x00, 0x00, 0x20, 0x26, 0x00, 0x00, 0xd8, 0x00, 0x00, 0x00, 
0xd0, 0x00, 0x00, 0x00, 0xc8, 0x00, 0x00, 0x00, 0xc0, 0x00, 0x00, 0x00, 
0xb8, 0x00, 0x00, 0x00, 0xb0, 0x00, 0x00, 0x00, 0xa8, 0x00, 0x00, 0x00, 
0xa0, 0x00, 0x00, 0x00, 0x98, 0x00, 0x00, 0x00, 0x90, 0x00, 0x00, 0x00, 
0x70, 0x00, 0x00, 0x00, 0x04, 0x00, 0x00, 0x00, 0xd6, 0xd6, 0xff, 0xff, 
0x04, 0x00, 0x00, 0x00, 0x5c, 0x00, 0x00, 0x00, 0x0c, 0x00, 0x00, 0x00, 
0x08, 0x00, 0x0e, 0x00, 0x08, 0x00, 0x04, 0x00, 0x08, 0x00, 0x00, 0x00, 
0x14, 0x00, 0x00, 0x00, 0x2c, 0x00, 0x00, 0x00, 0x00, 0x00, 0x0a, 0x00, 
0x0c, 0x00, 0x08, 0x00, 0x00, 0x00, 0x07, 0x00, 0x0a, 0x00, 0x00, 0x00, 
0x00, 0x00, 0x00, 0x01, 0x04, 0x00, 0x00, 0x00, 0x00, 0x00, 0x00, 0x00, 
0x00, 0x00, 0x0a, 0x00, 0x10, 0x00, 0x0c, 0x00, 0x08, 0x00, 0x04, 0x00, 
0x0a, 0x00, 0x00, 0x00, 0x02, 0x00, 0x00, 0x00, 0x02, 0x00, 0x00, 0x00, 
0x04, 0x00, 0x00, 0x00, 0x06, 0x00, 0x00, 0x00, 0x32, 0x2e, 0x31, 0x35, 
0x2e, 0x30, 0x00, 0x00, 0x3e, 0xd7, 0xff, 0xff, 0x04, 0x00, 0x00, 0x00, 
0x10, 0x00, 0x00, 0x00, 0x31, 0x2e, 0x31, 0x34, 0x2e, 0x30, 0x00, 0x00, 
0x00, 0x00, 0x00, 0x00, 0x00, 0x00, 0x00, 0x00, 0x68, 0xce, 0xff, 0xff, 
0x6c, 0xce, 0xff, 0xff, 0x70, 0xce, 0xff, 0xff, 0x74, 0xce, 0xff, 0xff, 
0x78, 0xce, 0xff, 0xff, 0x7c, 0xce, 0xff, 0xff, 0x80, 0xce, 0xff, 0xff, 
0x84, 0xce, 0xff, 0xff, 0x88, 0xce, 0xff, 0xff, 0x7e, 0xd7, 0xff, 0xff, 
0x04, 0x00, 0x00, 0x00, 0x38, 0x25, 0x00, 0x00, 0xea, 0x30, 0x36, 0xbe, 
0xad, 0x67, 0x80, 0xbd, 0x0c, 0x6b, 0x6d, 0x3c, 0x7f, 0xf3, 0x0a, 0xbe, 
0x70, 0x50, 0x9d, 0xba, 0x6e, 0xec, 0xe2, 0xba, 0xb7, 0x1f, 0x9b, 0x3d, 
0x09, 0xd8, 0x64, 0xbd, 0x66, 0x44, 0x8d, 0xbb, 0x92, 0x82, 0x10, 0xbe, 
0xec, 0x88, 0xf0, 0xb9, 0x2e, 0xf8, 0x2f, 0xbd, 0xbb, 0xd8, 0x89, 0xbd, 
0x55, 0xfc, 0x2b, 0xbe, 0x3a, 0x0d, 0x94, 0x3d, 0x8f, 0xb9, 0xad, 0xbd, 
0xdd, 0x1f, 0x04, 0xbd, 0x87, 0x46, 0xbe, 0x3d, 0xa8, 0x08, 0x17, 0x3e, 
0x68, 0x41, 0x21, 0x3e, 0x08, 0xf6, 0xb9, 0x3d, 0x91, 0xd5, 0xcb, 0xbd, 
0x2c, 0x2e, 0x1b, 0x3d, 0x75, 0x5e, 0x99, 0x3d, 0x45, 0x2b, 0x05, 0xbe, 
0x6e, 0x11, 0x46, 0x3d, 0x9c, 0xaf, 0xb0, 0x3b, 0xdc, 0x09, 0xa8, 0xbd, 
0x9b, 0xe0, 0xdd, 0x3c, 0xc2, 0xd4, 0xbf, 0x3d, 0xf9, 0x5d, 0x21, 0x3e, 
0xf9, 0x80, 0x41, 0x3e, 0x46, 0xc0, 0x8d, 0x3d, 0x58, 0x17, 0x04, 0xbe, 
0x6e, 0xf7, 0xbd, 0xbc, 0x15, 0xdb, 0x10, 0x3e, 0xe4, 0x73, 0x28, 0x3e, 
0xd3, 0x9a, 0xe2, 0xbd, 0xbf, 0x46, 0xa1, 0xbc, 0x32, 0x58, 0xb2, 0xbd, 
0x4b, 0xdb, 0x0c, 0x3d, 0xf4, 0xa9, 0x9b, 0x3c, 0x42, 0x86, 0xe1, 0x3d, 
0x7a, 0x2e, 0x28, 0x3e, 0x7b, 0x2d, 0x13, 0x3e, 0x90, 0x7c, 0x04, 0xbe, 
0x67, 0xfb, 0x92, 0x3c, 0xb4, 0xf5, 0x2f, 0x3e, 0x04, 0x66, 0x31, 0x3e, 
0x44, 0xe1, 0x24, 0x3d, 0xb9, 0xdb, 0x55, 0xbd, 0xfe, 0x93, 0xe2, 0xbd, 
0x0f, 0xe1, 0x89, 0x3c, 0x7e, 0xc1, 0xa3, 0xba, 0x29, 0xaa, 0x7d, 0xbb, 
0xc7, 0xd2, 0x66, 0x3b, 0x40, 0x28, 0x6a, 0x3d, 0x38, 0x8e, 0x1d, 0xbe, 
0xb5, 0x82, 0x92, 0x3c, 0x02, 0xe4, 0xec, 0x3d, 0xcf, 0xec, 0x21, 0x3e, 
0x74, 0xbf, 0xae, 0x3d, 0x69, 0x4a, 0xdc, 0x3c, 0x88, 0x3a, 0x04, 0xbe, 
0x7f, 0x13, 0x9e, 0x3c, 0xee, 0xa1, 0xd5, 0x3d, 0xbe, 0x74, 0x2a, 0x3e, 
0x1f, 0x22, 0xf0, 0x3d, 0x7f, 0x4f, 0xc9, 0x3d, 0x51, 0xbd, 0x20, 0xbe, 
0x69, 0x2d, 0x31, 0xbd, 0x1a, 0xe9, 0x29, 0x3e, 0x0f, 0xc7, 0x7f, 0x3e, 
0x30, 0x81, 0x31, 0x3e, 0x28, 0x22, 0x85, 0x3d, 0xfb, 0x85, 0xf5, 0xbd, 
0xf6, 0xda, 0xb0, 0x3c, 0x32, 0xe9, 0xea, 0x3d, 0xcc, 0x5a, 0x26, 0x3e, 
0x57, 0x31, 0xaf, 0x3d, 0x9e, 0x7a, 0x9a, 0xbc, 0xc0, 0xcd, 0x0e, 0xbe, 
0x27, 0x6a, 0x57, 0x3c, 0x88, 0x57, 0xaa, 0x3d, 0x93, 0xa1, 0x84, 0x3e, 
0x48, 0x0e, 0x60, 0x3e, 0xb9, 0xa4, 0xf1, 0x3d, 0x53, 0x64, 0xa8, 0xbd, 
0xac, 0x6a, 0x11, 0xbd, 0x5f, 0x1d, 0x19, 0x3e, 0x24, 0xcb, 0x1c, 0x3e, 
0x56, 0xe6, 0x43, 0x3e, 0xee, 0x09, 0xff, 0x3d, 0x5e, 0xd0, 0x25, 0xbe, 
0x84, 0x34, 0x68, 0xbc, 0x9b, 0x9f, 0x01, 0x3e, 0x5f, 0xa4, 0x2c, 0x3e, 
0x97, 0xce, 0x45, 0x3e, 0x12, 0xe1, 0xdf, 0x3c, 0x18, 0x66, 0xa8, 0xbd, 
0x6d, 0xe5, 0x60, 0x3c, 0xa9, 0x7d, 0x2e, 0x3e, 0xe7, 0x35, 0xf5, 0x3d, 
0x0f, 0xee, 0x43, 0x3e, 0x6f, 0x39, 0xc9, 0x3d, 0x97, 0x75, 0xd2, 0xbd, 
0x9c, 0xc5, 0x5e, 0x3d, 0xe4, 0x37, 0x89, 0x3d, 0x7d, 0xa3, 0x33, 0x3e, 
0x29, 0x49, 0x66, 0x3e, 0x67, 0xc8, 0x11, 0x3e, 0xa7, 0xf6, 0xbb, 0xbd, 
0x18, 0x15, 0xb6, 0x3c, 0xa1, 0xf7, 0x2e, 0x3e, 0xd7, 0x96, 0x56, 0x3e, 
0x96, 0xa2, 0x8e, 0x3e, 0xca, 0xbe, 0x31, 0x3e, 0x57, 0x53, 0x25, 0xbe, 
0xd7, 0x32, 0x5f, 0xbd, 0x71, 0x7c, 0x0d, 0x3e, 0x13, 0xde, 0x49, 0x3e, 
0x95, 0xc2, 0x92, 0x3e, 0x76, 0x03, 0x1c, 0x3e, 0x64, 0x94, 0xb0, 0xbd, 
0x57, 0x79, 0x15, 0xbd, 0xf1, 0x4d, 0x0e, 0x3e, 0x8d, 0xf6, 0x55, 0x3e, 
0x63, 0xd0, 0x02, 0x3e, 0xfb, 0x3d, 0xf4, 0x3c, 0x3d, 0x14, 0xb5, 0xbd, 
0x8d, 0xe2, 0x13, 0xbd, 0x11, 0xc0, 0xa7, 0x3d, 0x1e, 0x48, 0x01, 0x3e, 
0x13, 0x00, 0x28, 0x3d, 0xc3, 0x7d, 0xd2, 0xbb, 0x3b, 0x73, 0xc4, 0xbd, 
0x8e, 0xcd, 0xd3, 0x3b, 0xd5, 0xd2, 0x0d, 0x3e, 0xa1, 0xe4, 0x75, 0x3e, 
0xe8, 0x99, 0xa1, 0x3d, 0xad, 0xc6, 0xf8, 0x3d, 0x50, 0x3a, 0x20, 0xbe, 
0x38, 0x69, 0xc1, 0x3c, 0xa1, 0xce, 0x2c, 0x3e, 0x47, 0x3f, 0x1d, 0x3e, 
0x64, 0xdc, 0x82, 0x3e, 0x06, 0x96, 0x49, 0x3b, 0x6d, 0x34, 0x1f, 0xbe, 
0x14, 0xc6, 0xe2, 0x3b, 0xe2, 0x1d, 0x25, 0x3e, 0xa2, 0x90, 0xc8, 0x3d, 
0xb7, 0x2a, 0xe3, 0x3d, 0x5f, 0xd6, 0x6c, 0x3c, 0x18, 0xde, 0x2a, 0xbe, 
0xac, 0x5a, 0xbb, 0x3c, 0xf2, 0x20, 0xd5, 0x3d, 0x27, 0xf3, 0x73, 0x3d, 
0xdd, 0x5f, 0x07, 0x3e, 0xc7, 0x2f, 0xc0, 0x3d, 0xf5, 0x99, 0x79, 0xbe, 
0x63, 0xa4, 0xea, 0xbc, 0x1e, 0xab, 0x66, 0x3d, 0xc8, 0x2f, 0x97, 0x3d, 
0xcf, 0x20, 0x13, 0x3e, 0x66, 0xd9, 0x88, 0x3d, 0x91, 0x2b, 0x2f, 0xbe, 
0x06, 0x4e, 0xd3, 0x3b, 0x60, 0x16, 0xa8, 0x3d, 0xaa, 0xbb, 0xc6, 0x3d, 
0x7c, 0x39, 0x4d, 0x3d, 0x7a, 0x1d, 0x08, 0x3e, 0x11, 0x99, 0x29, 0xbe, 
0x64, 0x80, 0x78, 0xbd, 0x0b, 0x28, 0x13, 0x3e, 0x5d, 0x54, 0xd4, 0x3d, 
0x08, 0xe8, 0xf2, 0x3c, 0xbe, 0xb9, 0x26, 0xbc, 0x6e, 0x6c, 0x24, 0xbe, 
0x30, 0x36, 0xa1, 0x3c, 0xc8, 0xe9, 0x7d, 0x3d, 0x1b, 0x1f, 0xbd, 0x3d, 
0x3b, 0x16, 0x61, 0x3e, 0xa4, 0xff, 0x1b, 0x3e, 0xb7, 0x24, 0xe3, 0xbd, 
0x8e, 0x94, 0xab, 0xbc, 0x0a, 0x15, 0x10, 0x3e, 0xae, 0x8d, 0x3a, 0x3e, 
0x1b, 0x9f, 0x84, 0x3e, 0x11, 0x2a, 0x9c, 0x3d, 0xf4, 0x67, 0xea, 0xbd, 
0x3a, 0x6f, 0x9d, 0xbc, 0xaf, 0xb1, 0xdb, 0x3d, 0xb9, 0x82, 0x95, 0x3d, 
0xc1, 0x3a, 0x56, 0x3d, 0xb0, 0xaa, 0x99, 0x3d, 0x85, 0x18, 0xab, 0xbd, 
0x67, 0x3f, 0x18, 0xbc, 0x1f, 0x19, 0xb2, 0x3d, 0x87, 0x81, 0xa3, 0x3d, 
0x7f, 0x6f, 0x76, 0x3d, 0x32, 0x52, 0x99, 0x3d, 0xda, 0x32, 0x2a, 0xbe, 
0x4c, 0x39, 0x2e, 0xbc, 0xba, 0x04, 0x9e, 0x3d, 0x65, 0x46, 0x6e, 0xbb, 
0xac, 0x8b, 0x37, 0x3c, 0xe6, 0x44, 0xaa, 0x3d, 0x68, 0x4d, 0x1d, 0xbe, 
0x0d, 0x81, 0x21, 0x3d, 0x19, 0x06, 0x01, 0x3e, 0x28, 0xd8, 0x8a, 0x3e, 
0x96, 0xad, 0x6a, 0x3e, 0x78, 0xd8, 0xbb, 0x3d, 0x86, 0x32, 0x0c, 0xbe, 
0x02, 0x6a, 0x25, 0x3c, 0x60, 0x81, 0x61, 0x3e, 0x1b, 0x05, 0x2e, 0x3e, 
0xf9, 0x86, 0xdb, 0x3d, 0x5a, 0x8c, 0xbb, 0x3d, 0x66, 0xfb, 0xc6, 0xbd, 
0x85, 0xc1, 0x19, 0xbb, 0x43, 0xd5, 0x91, 0x3d, 0x9a, 0x57, 0x43, 0x3d, 
0x57, 0x32, 0x4f, 0x3e, 0x24, 0x25, 0x85, 0x3d, 0x1c, 0xc3, 0xea, 0xbd, 
0x64, 0xe4, 0x09, 0x3d, 0x0d, 0x9b, 0xd2, 0x3d, 0x30, 0x41, 0x26, 0x3e, 
0x22, 0x01, 0x38, 0x3e, 0xa1, 0xb4, 0xd3, 0x3d, 0xe6, 0xb7, 0x05, 0xbe, 
0xf4, 0x83, 0xc9, 0xbc, 0xe3, 0x12, 0x10, 0x3e, 0xdf, 0xaf, 0x86, 0x3d, 
0x7e, 0x15, 0x27, 0x3e, 0xc9, 0x92, 0x59, 0x3d, 0xd9, 0xab, 0xd8, 0xbd, 
0xdf, 0x5f, 0xbc, 0x3c, 0x42, 0xb6, 0x1e, 0x3e, 0x24, 0x05, 0x64, 0x3e, 
0xf0, 0xec, 0x71, 0x3e, 0x0e, 0xbb, 0x6f, 0x3d, 0x7b, 0x59, 0x0d, 0xbe, 
0xf4, 0xa5, 0xe4, 0x3c, 0xf7, 0x82, 0x55, 0x3e, 0x5b, 0x0e, 0x6c, 0x3e, 
0x4c, 0x4b, 0x4b, 0x3e, 0x77, 0xbc, 0xf6, 0x3d, 0x1c, 0x82, 0xe1, 0xbd, 
0x4c, 0x1f, 0x90, 0x3c, 0x87, 0x02, 0xfa, 0x3d, 0x60, 0x67, 0x94, 0x3e, 
0xba, 0xfc, 0x6b, 0x3e, 0x75, 0x56, 0xf2, 0x3d, 0x76, 0xa4, 0x2e, 0xbe, 
0x0b, 0x15, 0xe0, 0xbc, 0x20, 0xdf, 0x4b, 0x3e, 0x33, 0xa9, 0x13, 0x3e, 
0x14, 0x5c, 0x2f, 0x3e, 0xed, 0x08, 0xa7, 0x3d, 0x41, 0x8c, 0xc8, 0xbd, 
0xfa, 0xdb, 0x12, 0x3d, 0xf2, 0xe8, 0xde, 0x3d, 0x23, 0xf2, 0x63, 0x3e, 
0xcd, 0x82, 0x23, 0x3e, 0x84, 0x27, 0x87, 0x3d, 0xde, 0x27, 0x18, 0xbe, 
0x17, 0xf6, 0x9e, 0xbb, 0x0b, 0x8b, 0x88, 0x3d, 0xc4, 0xb2, 0x24, 0x3d, 
0x78, 0x09, 0xe5, 0x3d, 0x5f, 0xea, 0x39, 0x3d, 0xe8, 0x63, 0x19, 0xbe, 
0x68, 0x98, 0x5b, 0xbc, 0xfb, 0xd0, 0x94, 0x3d, 0xb8, 0x87, 0xf4, 0x3d, 
0x73, 0xb8, 0x0e, 0x3e, 0x34, 0x3c, 0x02, 0x3d, 0x62, 0xec, 0xc4, 0xbd, 
0xa7, 0xaf, 0x69, 0x3b, 0xbe, 0xfe, 0x2e, 0x3e, 0xbf, 0x3e, 0x35, 0x3e, 
0xb1, 0xe2, 0x68, 0x3e, 0xb2, 0x49, 0x2c, 0x3d, 0x04, 0x7d, 0x25, 0xbe, 
0x6e, 0x4c, 0xa1, 0x3c, 0x90, 0xc1, 0x34, 0x3e, 0xb0, 0x31, 0x72, 0x3e, 
0x2a, 0x07, 0xa7, 0x3d, 0x88, 0x75, 0xa5, 0x3d, 0xf1, 0x16, 0xe2, 0xbd, 
0x46, 0x59, 0x32, 0xbd, 0xfc, 0x35, 0x98, 0x3d, 0x23, 0xd4, 0x8c, 0x3d, 
0xd5, 0x91, 0x04, 0x3e, 0x22, 0x81, 0xbf, 0x3d, 0xbe, 0x2a, 0xce, 0xbd, 
0xe4, 0xd0, 0x34, 0xbd, 0x79, 0xfb, 0x8e, 0x3d, 0xa6, 0x4b, 0x98, 0x3d, 
0xd2, 0xd4, 0xc7, 0x3c, 0x48, 0xb8, 0xae, 0x3d, 0x24, 0xdf, 0x05, 0xbe, 
0xfc, 0xbe, 0x8a, 0x3c, 0x4c, 0x3d, 0xc5, 0x3d, 0x73, 0xe9, 0x2e, 0x3e, 
0xa7, 0xaa, 0x25, 0x3e, 0x9b, 0x9f, 0x73, 0x3c, 0x34, 0x4d, 0x18, 0xbe, 
0x1b, 0x94, 0xd1, 0x3c, 0x74, 0xda, 0x03, 0x3e, 0xa4, 0xc4, 0x59, 0x3d, 
0x31, 0x69, 0x84, 0x3e, 0x2d, 0xef, 0xf8, 0x3d, 0x8f, 0x91, 0xf2, 0xbd, 
0x8f, 0xc3, 0x8e, 0x3c, 0x41, 0xf2, 0x4c, 0x3d, 0xf2, 0x47, 0x89, 0x3e, 
0xe3, 0xd1, 0x3c, 0x3e, 0x8b, 0xb1, 0x2d, 0x3e, 0x25, 0x0f, 0xb4, 0xbd, 
0xcb, 0x4e, 0x13, 0xbd, 0xae, 0x5f, 0x45, 0x3e, 0x26, 0x73, 0x35, 0x3e, 
0x47, 0xe1, 0x79, 0x3e, 0xfb, 0x7e, 0x16, 0x3e, 0x47, 0x61, 0x02, 0xbe, 
0xbd, 0x4e, 0xab, 0x3b, 0x73, 0xff, 0x05, 0x3e, 0x94, 0xd1, 0x13, 0x3e, 
0x15, 0xac, 0x73, 0x3d, 0x50, 0xc9, 0x43, 0x3d, 0x23, 0xa7, 0x0f, 0xbe, 
0x84, 0xb1, 0xfb, 0x3c, 0x17, 0xe5, 0xd5, 0x3d, 0x87, 0x60, 0x91, 0x3d, 
0x52, 0x0a, 0xf5, 0x3d, 0xcc, 0xb6, 0x57, 0x3d, 0x7c, 0xbb, 0xce, 0xbd, 
0x4b, 0x98, 0x8d, 0x3c, 0x5d, 0x1f, 0x6b, 0x3d, 0xba, 0x3f, 0x01, 0x3e, 
0xac, 0xfe, 0xe3, 0xbb, 0x67, 0x96, 0x99, 0x3d, 0x55, 0x91, 0xf6, 0xbd, 
0xcd, 0x97, 0x06, 0x3d, 0x29, 0x8f, 0xe2, 0x3d, 0xac, 0x00, 0x81, 0x3d, 
0xe7, 0xeb, 0xa2, 0x3b, 0x98, 0x0d, 0xc0, 0x3c, 0x71, 0x70, 0x5a, 0xbe, 
0x04, 0x8e, 0xc2, 0xbc, 0xc5, 0xc2, 0xc5, 0x3d, 0x40, 0xbd, 0x2c, 0x3e, 
0x78, 0xcd, 0xc6, 0x3d, 0x41, 0xcf, 0x73, 0x3d, 0xb6, 0x43, 0x59, 0xbe, 
0x53, 0x67, 0x42, 0xbd, 0x12, 0xc1, 0x44, 0x3e, 0x14, 0x53, 0x52, 0x3e, 
0x83, 0x6c, 0x32, 0x3e, 0x2f, 0xf5, 0xb7, 0x3d, 0x2a, 0xc6, 0x32, 0xbe, 
0x6e, 0x2d, 0x4b, 0x3a, 0x69, 0xd2, 0x16, 0x3e, 0xd2, 0x67, 0x81, 0x3e, 
0x54, 0xb4, 0x17, 0x3e, 0xd3, 0xb3, 0xdd, 0x3d, 0xb8, 0x90, 0x0f, 0xbe, 
0x5d, 0xe2, 0x37, 0x3c, 0x75, 0x3c, 0x34, 0x3e, 0xc7, 0x54, 0xf3, 0x3d, 
0x1e, 0xb3, 0x40, 0x3e, 0xa4, 0xe6, 0x5c, 0x3d, 0x14, 0x48, 0x3a, 0xbe, 
0xaa, 0x6a, 0x3f, 0xbd, 0x01, 0x73, 0xf9, 0x3d, 0xed, 0x76, 0x6a, 0x3e, 
0xc3, 0x16, 0x27, 0x3e, 0xe8, 0x23, 0x81, 0x3d, 0x62, 0xbf, 0x43, 0xbe, 
0x2d, 0x20, 0xc9, 0xbc, 0xe3, 0x1c, 0xf9, 0x3d, 0xa5, 0x99, 0x10, 0x3e, 
0x64, 0xbd, 0x24, 0x3d, 0xbf, 0xc0, 0x63, 0x3d, 0x50, 0x8b, 0x08, 0xbe, 
0xce, 0xcc, 0x6a, 0x3b, 0x08, 0x8e, 0x44, 0x3e, 0x23, 0x1a, 0x6a, 0x3e, 
0xb9, 0x6e, 0x8f, 0x3e, 0xae, 0x44, 0xde, 0x3d, 0xc1, 0x71, 0x33, 0xbe, 
0x14, 0x03, 0x8c, 0xbc, 0x0b, 0x40, 0x17, 0x3e, 0x23, 0xd8, 0xff, 0x3d, 
0x8b, 0x67, 0x73, 0x3e, 0xf0, 0x3f, 0xc1, 0x3d, 0x4c, 0x29, 0x43, 0xbe, 
0x13, 0x6a, 0xe3, 0xbc, 0x3c, 0x2e, 0x02, 0x3e, 0x44, 0x41, 0x20, 0x3e, 
0x00, 0x18, 0x37, 0x3e, 0xc9, 0xfe, 0xf1, 0x3c, 0xf9, 0x4d, 0x42, 0xbe, 
0x71, 0xf2, 0x9a, 0x3c, 0x6c, 0xc4, 0x27, 0x3e, 0x4e, 0x55, 0x11, 0x3e, 
0xb1, 0x34, 0x29, 0x3e, 0xa2, 0xf4, 0x40, 0x3d, 0x58, 0x80, 0x43, 0xbe, 
0x71, 0xee, 0xb5, 0x3c, 0x9b, 0xc0, 0x0c, 0x3e, 0xa9, 0x83, 0x6b, 0x3e, 
0xcd, 0x8e, 0x8d, 0x3e, 0x38, 0xbc, 0xb9, 0x3d, 0xc0, 0x58, 0x46, 0xbe, 
0x97, 0xd0, 0x3f, 0x3c, 0x2d, 0x5b, 0x5a, 0x3e, 0xb9, 0x2e, 0x6a, 0x3e, 
0x8a, 0xf5, 0x76, 0x3e, 0xc8, 0x7f, 0xf2, 0x3d, 0x2a, 0xb2, 0x47, 0xbe, 
0xd6, 0x9e, 0x15, 0x3d, 0x6c, 0x4a, 0xef, 0x3d, 0xf4, 0xff, 0xf4, 0x3d, 
0x9a, 0x4e, 0x85, 0x3e, 0x3c, 0x2d, 0xdf, 0x3d, 0x17, 0xd4, 0xfb, 0xbd, 
0x56, 0x4e, 0xd6, 0x3c, 0x3a, 0x46, 0xd6, 0x3d, 0xa1, 0xc9, 0x9c, 0x3e, 
0x5c, 0xa3, 0x22, 0x3e, 0x0b, 0xf9, 0x84, 0x3d, 0x16, 0xa5, 0x54, 0xbe, 
0x5e, 0xb8, 0xf1, 0xbc, 0x9a, 0xdd, 0xaa, 0x3d, 0x66, 0xef, 0x46, 0x3e, 
0x6f, 0x39, 0x0d, 0x3e, 0x74, 0x23, 0x21, 0x3d, 0x2d, 0xb1, 0x41, 0xbe, 
0x75, 0xf1, 0x1e, 0xbd, 0x1d, 0x11, 0xd1, 0x3d, 0x43, 0x33, 0x0c, 0x3e, 
0x7f, 0x3a, 0x3d, 0x3d, 0x32, 0x7d, 0xd5, 0x3d, 0x60, 0x4c, 0x30, 0xbe, 
0xa9, 0x1a, 0x1a, 0xbd, 0xa6, 0x7a, 0xdc, 0x3d, 0xe3, 0xeb, 0x20, 0x3e, 
0xbe, 0x7c, 0x99, 0x3d, 0xe7, 0xc8, 0xa8, 0x3d, 0xaf, 0x69, 0x5c, 0xbe, 
0xe8, 0x4c, 0x45, 0xbd, 0x7c, 0x42, 0xad, 0x3d, 0x7e, 0xce, 0x67, 0x3e, 
0x2b, 0x10, 0x4f, 0x3e, 0xcd, 0xae, 0x84, 0x3d, 0x6e, 0xe3, 0x28, 0xbe, 
0xaf, 0xe2, 0xe1, 0xbc, 0x13, 0x2c, 0x09, 0x3e, 0x1e, 0x00, 0xa2, 0x3d, 
0xe8, 0x7d, 0xe5, 0x3d, 0x6f, 0x8c, 0x97, 0x3d, 0x2b, 0xb6, 0x43, 0xbe, 
0x72, 0xe1, 0x01, 0xbd, 0x68, 0xfc, 0xe5, 0x3d, 0x10, 0x50, 0xe1, 0x3d, 
0x89, 0x4f, 0xc1, 0x3d, 0x53, 0x30, 0x9f, 0x3d, 0x05, 0x4b, 0x3f, 0xbe, 
0x95, 0xed, 0x15, 0x3d, 0x1e, 0x8e, 0x77, 0x3d, 0x4b, 0xce, 0x77, 0x3d, 
0xa1, 0x31, 0xc1, 0x3c, 0x4c, 0x97, 0x8d, 0xba, 0xb5, 0xcd, 0x57, 0xbe, 
0xac, 0x9b, 0x4e, 0x3d, 0x16, 0x74, 0xe6, 0x3c, 0x48, 0x78, 0x0c, 0x3d, 
0xe2, 0xe5, 0x77, 0x3d, 0xc5, 0x6a, 0x42, 0x3b, 0x0f, 0x65, 0x2e, 0xbe, 
0x73, 0xd1, 0x02, 0xbd, 0x84, 0x1a, 0xcc, 0x3d, 0xd4, 0x8a, 0x21, 0x3d, 
0xaf, 0xd3, 0xeb, 0x3d, 0x89, 0xc8, 0xbf, 0x3c, 0x36, 0xc9, 0x42, 0x3d, 
0xfd, 0x5c, 0x05, 0xbd, 0xba, 0xc8, 0x29, 0x3e, 0xdd, 0x39, 0x2b, 0x3e, 
0x47, 0x58, 0x8a, 0x3d, 0xa2, 0xdf, 0x94, 0xba, 0xeb, 0x72, 0xbe, 0x3c, 
0x86, 0x10, 0x80, 0xbb, 0xa7, 0xc3, 0xde, 0x3d, 0x35, 0xac, 0x1b, 0x3d, 
0xdd, 0xcb, 0xc3, 0x3c, 0x72, 0xb5, 0xb5, 0x3c, 0x50, 0x41, 0xf0, 0x3c, 
0x5b, 0x2e, 0x34, 0xbd, 0xd7, 0xea, 0xac, 0x3d, 0xff, 0xc2, 0xce, 0x3d, 
0xc6, 0xea, 0xc1, 0xbc, 0x4d, 0xe7, 0x2f, 0x3d, 0xed, 0x6c, 0x4a, 0x3d, 
0xcb, 0xe1, 0xe1, 0xbc, 0x9d, 0xcf, 0x12, 0x3e, 0x3c, 0xf4, 0x2f, 0x3e, 
0xab, 0x0f, 0xfe, 0x3d, 0xe3, 0x84, 0x83, 0x3d, 0x91, 0x7a, 0x55, 0xbe, 
0x6d, 0xed, 0x22, 0xbc, 0xc4, 0x15, 0x2c, 0x3e, 0xfb, 0x56, 0x27, 0x3e, 
0x37, 0x74, 0xb8, 0x3d, 0xd4, 0x1b, 0x81, 0x3c, 0x4e, 0xb8, 0x51, 0xbe, 
0xaa, 0xee, 0x74, 0x3c, 0x25, 0x87, 0xb0, 0x3d, 0x35, 0xa6, 0x14, 0x3e, 
0x3f, 0x84, 0x43, 0x3d, 0x6b, 0xb1, 0x90, 0x3d, 0x29, 0x92, 0x2f, 0xbe, 
0xcf, 0x43, 0x4e, 0xbd, 0xfa, 0xec, 0x2d, 0x3e, 0xb5, 0xe7, 0x29, 0x3e, 
0x1c, 0xc5, 0x82, 0xbc, 0xed, 0x6f, 0x84, 0x3d, 0xba, 0x8b, 0x5c, 0xbe, 
0xa7, 0xb2, 0x0d, 0xbd, 0x81, 0xd9, 0xde, 0x3d, 0x58, 0xe9, 0x65, 0x3d, 
0x0b, 0x05, 0x37, 0x3e, 0x2c, 0x88, 0xb8, 0x3d, 0x8a, 0x13, 0x44, 0xbe, 
0x6f, 0x12, 0x40, 0xbc, 0xe1, 0x18, 0xac, 0x3d, 0x53, 0x0e, 0xf7, 0x3d, 
0x5b, 0x38, 0xd3, 0x3b, 0x38, 0x2d, 0x3e, 0x3d, 0x83, 0xf9, 0x50, 0xbe, 
0xa9, 0x7d, 0xe3, 0x3b, 0x7e, 0x35, 0xf2, 0x3d, 0x58, 0x75, 0xd0, 0x3d, 
0x3e, 0xb8, 0x64, 0x3d, 0xcb, 0xae, 0x08, 0x3d, 0x7e, 0x7e, 0x6f, 0xbe, 
0x84, 0x98, 0x38, 0x3c, 0x56, 0xa5, 0x16, 0x3e, 0xc7, 0x5c, 0x1e, 0x3e, 
0xdd, 0xc0, 0xea, 0x3d, 0x80, 0x04, 0xa9, 0x3c, 0x5a, 0xe9, 0x4e, 0xbe, 
0xc6, 0x07, 0x39, 0xbc, 0x4f, 0x85, 0xa7, 0x3d, 0x60, 0x4e, 0x30, 0x3e, 
0x76, 0x17, 0xb6, 0x3d, 0x9d, 0x69, 0x7b, 0x3d, 0xb8, 0x33, 0x26, 0xbe, 
0xa0, 0xc9, 0x9b, 0x3c, 0x2e, 0xdd, 0x69, 0x3d, 0x04, 0xe8, 0x6a, 0x3e, 
0xed, 0x6b, 0xc5, 0x3d, 0xaa, 0x2e, 0xb3, 0xbc, 0xe3, 0x03, 0x12, 0xbe, 
0x92, 0x0a, 0x86, 0xbc, 0x3e, 0xc8, 0xde, 0x3d, 0x9a, 0xee, 0x06, 0x3e, 
0xcc, 0x8d, 0x81, 0x39, 0xcc, 0x6d, 0x5a, 0x3d, 0x5d, 0x56, 0x14, 0xbe, 
0xc9, 0xc2, 0xff, 0x3c, 0x2f, 0x2b, 0xee, 0x3d, 0xcd, 0x50, 0x57, 0x3e, 
0xb1, 0x25, 0x04, 0x3e, 0x76, 0x6c, 0xb6, 0x3c, 0x12, 0xe9, 0x17, 0xbe, 
0xff, 0x68, 0x61, 0xbd, 0xad, 0xef, 0xe0, 0x3d, 0xac, 0xdc, 0x41, 0x3e, 
0xc0, 0xf7, 0xe8, 0x3c, 0x9f, 0xc1, 0x84, 0x3d, 0x7c, 0xad, 0x4d, 0xbe, 
0x2b, 0x75, 0x06, 0xbc, 0xed, 0xae, 0x02, 0x3e, 0x20, 0xd6, 0xee, 0xbc, 
0x57, 0xfb, 0xd0, 0x3c, 0xcd, 0x85, 0x1c, 0x3d, 0x33, 0x52, 0x27, 0xbe, 
0xce, 0x60, 0x09, 0xbd, 0x06, 0xad, 0x91, 0x3d, 0xa3, 0x30, 0x0f, 0x3e, 
0x18, 0xc7, 0xe0, 0x3d, 0x19, 0xd7, 0x97, 0x3d, 0x65, 0x16, 0x13, 0xbe, 
0xd7, 0xf6, 0x2b, 0xbd, 0x92, 0x43, 0xe4, 0x3d, 0xb3, 0xbb, 0x08, 0x3e, 
0x54, 0x8f, 0x0f, 0x3c, 0x77, 0xe8, 0x17, 0x3d, 0xfa, 0x2d, 0xe7, 0xbd, 
0x66, 0x04, 0x8b, 0xbb, 0xfe, 0x73, 0xb0, 0x3d, 0x2d, 0xec, 0xa6, 0x3d, 
0x8b, 0xc3, 0xdd, 0x3d, 0x03, 0x04, 0x8d, 0x3d, 0x29, 0x8d, 0x0e, 0xbe, 
0x28, 0xad, 0xf1, 0xba, 0xf3, 0xc0, 0x36, 0x3c, 0x3f, 0x22, 0x67, 0x3d, 
0x15, 0x10, 0x60, 0xbd, 0xfd, 0x45, 0xcc, 0x3c, 0x00, 0xc4, 0xe4, 0xbc, 
0x9d, 0xf8, 0x03, 0x3d, 0x38, 0xa0, 0x8e, 0x3d, 0x34, 0xaa, 0x15, 0x3e, 
0xa6, 0xf4, 0xfe, 0xba, 0xc1, 0xd6, 0x50, 0x3d, 0x59, 0x8c, 0x24, 0xbd, 
0xfe, 0x0f, 0x83, 0xbd, 0xae, 0x0c, 0xe3, 0x3d, 0x5b, 0xa2, 0x77, 0x3b, 
0x47, 0xdb, 0xd6, 0xbd, 0xf6, 0xc3, 0xb9, 0xbc, 0x00, 0x1b, 0xe0, 0xbc, 
0x09, 0x7d, 0x43, 0xbd, 0x23, 0x2c, 0x99, 0x3c, 0x35, 0x8a, 0xcd, 0xbc, 
0x4c, 0x84, 0x07, 0xbd, 0x12, 0xed, 0x86, 0xbc, 0xe1, 0x1d, 0xa0, 0xbc, 
0x9f, 0xec, 0xf2, 0xbb, 0x57, 0xa8, 0xfd, 0x3d, 0x8e, 0xb0, 0xa1, 0x3d, 
0x01, 0x19, 0x67, 0xbd, 0xfa, 0xd2, 0xf7, 0x3c, 0x24, 0x10, 0x29, 0xbd, 
0x51, 0x8f, 0x74, 0xbd, 0x08, 0x8f, 0xc9, 0x3d, 0x8d, 0x83, 0xe8, 0x3c, 
0x68, 0x3f, 0x32, 0x3d, 0xe9, 0xf0, 0x7d, 0x3d, 0xc8, 0xb9, 0x0c, 0x3d, 
0x56, 0x36, 0x04, 0xbd, 0xd6, 0x1c, 0xe8, 0x3d, 0x86, 0x6f, 0xaf, 0x3d, 
0x16, 0xaf, 0xc9, 0x3c, 0x3d, 0x2b, 0x75, 0x3d, 0x07, 0xa8, 0xb9, 0xbc, 
0x8b, 0x1c, 0x7e, 0xbc, 0x6b, 0xed, 0xd4, 0x3d, 0xa3, 0xff, 0xbd, 0x3c, 
0x6d, 0xc9, 0x93, 0xbd, 0xfa, 0x8a, 0x27, 0x3c, 0x99, 0x13, 0x0d, 0xbe, 
0x1f, 0xd0, 0xfb, 0xbc, 0x64, 0xb0, 0xb6, 0x3c, 0x0c, 0xd4, 0x47, 0x3d, 
0x0b, 0x8e, 0x02, 0xbc, 0x2e, 0xa6, 0xbd, 0xbc, 0x16, 0xe3, 0xfc, 0xbd, 
0x81, 0x59, 0x00, 0x3c, 0x55, 0x30, 0x5f, 0x3d, 0xa3, 0x31, 0x0b, 0x3e, 
0x94, 0x46, 0xb0, 0x3d, 0xe8, 0x65, 0x96, 0x3d, 0x48, 0x8d, 0xcb, 0xbb, 
0x11, 0x6c, 0x4b, 0xbd, 0xb9, 0xda, 0x95, 0x3d, 0x8b, 0xac, 0x1f, 0x3e, 
0x23, 0xac, 0xda, 0x3c, 0x6b, 0x92, 0xdc, 0x3b, 0xb4, 0x14, 0x38, 0xbc, 
0xc1, 0x3e, 0x28, 0xbd, 0x35, 0x57, 0xc6, 0x3d, 0xbd, 0xd6, 0x59, 0x3c, 
0x9d, 0x22, 0x41, 0xbe, 0x77, 0xfc, 0xdd, 0xbc, 0x2f, 0x54, 0x38, 0xbd, 
0x8b, 0x06, 0x7b, 0x3c, 0x06, 0x76, 0x93, 0x3d, 0x87, 0x9d, 0x90, 0xbd, 
0xa1, 0x4a, 0x12, 0xbe, 0xf8, 0xf1, 0xc5, 0x3c, 0x26, 0xa2, 0x9d, 0xbc, 
0x08, 0x3f, 0x9c, 0xbc, 0xc7, 0x6b, 0x60, 0x3d, 0x82, 0x5c, 0x3c, 0x3d, 
0x19, 0xcb, 0x4f, 0x3c, 0x99, 0xa7, 0x60, 0x3d, 0xeb, 0xee, 0x3b, 0xbd, 
0x42, 0xdb, 0xc6, 0xba, 0xc5, 0xd7, 0xef, 0x3d, 0x60, 0x94, 0x86, 0xb7, 
0x06, 0xa2, 0xf3, 0xbc, 0x7d, 0x8c, 0x6e, 0x3c, 0xdc, 0x22, 0xf0, 0xbc, 
0xa7, 0x8a, 0xea, 0x3c, 0x73, 0xfa, 0x72, 0x3d, 0x44, 0x64, 0x4b, 0x3e, 
0x25, 0x92, 0x36, 0x3c, 0x31, 0x65, 0x08, 0x3c, 0x72, 0xb9, 0x23, 0xbd, 
0xff, 0x7d, 0x81, 0xbb, 0x8c, 0xcd, 0xb6, 0x3d, 0xd5, 0x6e, 0xa5, 0x3d, 
0x9a, 0xaa, 0x00, 0xbe, 0xa4, 0xe4, 0xe1, 0xbc, 0x9d, 0x29, 0xba, 0xbc, 
0xeb, 0xb6, 0x25, 0xbd, 0x6e, 0x2a, 0x64, 0x3c, 0x46, 0xeb, 0x08, 0x3d, 
0x1e, 0x42, 0xf7, 0xbd, 0xab, 0x6b, 0xb2, 0xbb, 0x24, 0x56, 0x14, 0xbd, 
0x70, 0xa7, 0x19, 0xbc, 0xd8, 0xce, 0x9d, 0x3c, 0x4e, 0x35, 0x4a, 0xbc, 
0xeb, 0xb0, 0xa3, 0x3d, 0xf5, 0xc5, 0x29, 0x3d, 0x07, 0x46, 0x25, 0xbd, 
0x62, 0x0b, 0x10, 0x3c, 0x22, 0x07, 0x83, 0x3d, 0xd5, 0xd3, 0xb3, 0x3c, 
0xee, 0x3c, 0x09, 0xbd, 0x81, 0xc2, 0x1d, 0xbd, 0x94, 0x1d, 0x3e, 0xbc, 
0x38, 0xfc, 0xaf, 0x3c, 0x09, 0x61, 0xb8, 0x3c, 0x07, 0xc1, 0x7d, 0xbd, 
0x25, 0xd0, 0x99, 0x3b, 0x1b, 0xed, 0x34, 0xbd, 0x78, 0x2f, 0x8e, 0xbc, 
0x99, 0x69, 0x25, 0x3b, 0x5b, 0xaf, 0x0b, 0x3d, 0xf3, 0xe2, 0x70, 0x3d, 
0x7f, 0xed, 0xca, 0x3c, 0x06, 0x12, 0x81, 0xbc, 0xc3, 0xda, 0x32, 0xbd, 
0xe7, 0x4d, 0xcd, 0xba, 0x0e, 0x5e, 0xb0, 0x3d, 0x43, 0x99, 0x9b, 0xbd, 
0x72, 0x70, 0x23, 0xbe, 0x22, 0x6d, 0xcf, 0x3c, 0x1c, 0x38, 0x38, 0x3d, 
0xfb, 0x8b, 0x1c, 0x3c, 0xf2, 0x6e, 0xad, 0x3d, 0x3e, 0x1c, 0xa4, 0xbd, 
0xdd, 0x5b, 0x1c, 0xbc, 0x19, 0x0a, 0x8d, 0x3b, 0x70, 0x08, 0x44, 0xbd, 
0xf3, 0x83, 0x56, 0xbd, 0x93, 0x57, 0xea, 0x3d, 0x2c, 0x38, 0xae, 0x3d, 
0x28, 0x22, 0x91, 0x3b, 0xc4, 0x28, 0x50, 0x3d, 0xe6, 0xa9, 0xc4, 0xbc, 
0x42, 0x51, 0xe7, 0x3c, 0x06, 0x07, 0xc5, 0x3d, 0xf5, 0x9d, 0x77, 0x3c, 
0xc2, 0x17, 0xae, 0xbd, 0x12, 0xbb, 0xf3, 0xbc, 0x9c, 0x7f, 0x15, 0xbd, 
0x6a, 0x39, 0x37, 0xbd, 0x4c, 0xc7, 0x56, 0x3b, 0xb7, 0xe4, 0x36, 0x3d, 
0x36, 0x42, 0x94, 0xbc, 0x63, 0xee, 0xeb, 0xbc, 0x22, 0xdb, 0x98, 0xbc, 
0x84, 0xec, 0x19, 0xbd, 0x49, 0x60, 0x82, 0x3d, 0x32, 0x18, 0x4e, 0x3c, 
0x31, 0xb7, 0x89, 0xbc, 0x5d, 0xfd, 0x2d, 0x3d, 0x20, 0xba, 0x9f, 0x3c, 
0x96, 0xcc, 0x6f, 0x3c, 0x67, 0xa7, 0xb3, 0x3d, 0xee, 0x20, 0x9b, 0x3d, 
0xfc, 0xde, 0x4d, 0xbd, 0x59, 0x67, 0x87, 0x3b, 0x08, 0xf4, 0xd4, 0xbb, 
0xdb, 0x1d, 0xb3, 0x3b, 0x91, 0x97, 0x88, 0x3d, 0xf5, 0x1e, 0x2f, 0x3e, 
0x60, 0xdc, 0x3f, 0x3d, 0x49, 0x49, 0xde, 0x3c, 0xe4, 0xd3, 0x1c, 0x3d, 
0x44, 0x87, 0x6d, 0xbd, 0x56, 0x5f, 0xe1, 0x3d, 0x5f, 0x70, 0x3c, 0x3d, 
0x9c, 0x66, 0xad, 0xbd, 0x6f, 0x13, 0xc9, 0xbb, 0x00, 0xaa, 0x09, 0x3d, 
0x9c, 0xeb, 0xa7, 0xbc, 0x89, 0x0c, 0x32, 0x3d, 0x7a, 0x0d, 0xbe, 0xbc, 
0xb5, 0x49, 0xbd, 0xbd, 0xf3, 0x77, 0x1e, 0x3d, 0xa4, 0xb0, 0x2b, 0xbd, 
0xb8, 0x5a, 0xee, 0xbc, 0x2c, 0x6c, 0x46, 0x3d, 0x22, 0x85, 0xf5, 0x3d, 
0xc2, 0x7c, 0xb9, 0x3d, 0x15, 0x2c, 0xaf, 0x3a, 0x50, 0x5d, 0xef, 0x3b, 
0x0e, 0x7a, 0x46, 0xbd, 0xdc, 0xf8, 0xd9, 0x3d, 0x9a, 0xa7, 0xd7, 0x3d, 
0xb5, 0xca, 0xdd, 0xbc, 0x64, 0x58, 0x88, 0x3c, 0xf0, 0x73, 0x8b, 0xbc, 
0x75, 0x2a, 0x74, 0xbd, 0x35, 0x15, 0x01, 0x3e, 0x92, 0x35, 0xcc, 0x3d, 
0xbe, 0x91, 0xd2, 0xba, 0x01, 0xa8, 0x1e, 0x3d, 0x10, 0x7e, 0xac, 0x3b, 
0x78, 0x69, 0x22, 0x3c, 0x18, 0xea, 0xcf, 0x3d, 0x15, 0xd9, 0x00, 0x3d, 
0xf2, 0xc2, 0x36, 0x3d, 0x07, 0xb0, 0x9c, 0x3d, 0x44, 0x8a, 0xf1, 0x3c, 
0xbb, 0x39, 0x8e, 0x3b, 0x9b, 0x19, 0x02, 0x3e, 0x9c, 0xb1, 0x6b, 0x3d, 
0x20, 0xba, 0xc7, 0x3c, 0x03, 0x16, 0x14, 0x3d, 0x28, 0xb4, 0x38, 0xbc, 
0xdf, 0x9f, 0x0b, 0x3d, 0xf3, 0xf7, 0xf2, 0x3d, 0xce, 0x56, 0x9f, 0x3c, 
0xea, 0x87, 0x60, 0xbd, 0x24, 0x48, 0x2e, 0x3d, 0x26, 0xb6, 0x13, 0x3d, 
0xe9, 0x1c, 0x89, 0x3c, 0xf7, 0xe7, 0xdf, 0x3d, 0xdb, 0x2f, 0x3e, 0x3d, 
0x02, 0xbb, 0xf6, 0xbd, 0xfa, 0xbf, 0xfc, 0xbc, 0xe8, 0xe5, 0xe1, 0x3c, 
0x14, 0x41, 0xff, 0x3b, 0xc9, 0x90, 0x46, 0x3d, 0x4e, 0xac, 0x37, 0x3e, 
0xea, 0x83, 0x07, 0x3e, 0x98, 0x16, 0x10, 0x3d, 0x48, 0xe5, 0xfa, 0xbb, 
0xb0, 0x3f, 0x00, 0xbd, 0x4b, 0x38, 0x69, 0x3d, 0x7a, 0x3c, 0x1b, 0x3d, 
0x65, 0xe2, 0x58, 0x3d, 0x6a, 0x4f, 0x7b, 0x3d, 0x7c, 0x3a, 0x1f, 0xbd, 
0x61, 0xc1, 0x8c, 0xbb, 0xba, 0x70, 0x00, 0x3e, 0x43, 0x47, 0xab, 0x3d, 
0xc0, 0xb9, 0x94, 0x3d, 0x8a, 0xa0, 0x6f, 0xbb, 0x98, 0x08, 0x2b, 0xbc, 
0x0c, 0x1d, 0x43, 0xbd, 0x73, 0x82, 0x10, 0x3d, 0x2e, 0x22, 0xee, 0x3c, 
0xc8, 0x8a, 0x85, 0x3d, 0xfa, 0x34, 0x58, 0xbc, 0x1a, 0xe2, 0x02, 0x3d, 
0x1d, 0xfb, 0x1a, 0xbd, 0x9a, 0xc5, 0x08, 0x3e, 0xe8, 0x83, 0x4a, 0x3d, 
0xa9, 0x1b, 0x91, 0x3a, 0x2e, 0xad, 0xd3, 0xbc, 0xa1, 0x84, 0x4a, 0xbd, 
0xb7, 0xb4, 0x0a, 0xbc, 0x0d, 0x3b, 0xa4, 0x3d, 0xe1, 0xe2, 0x94, 0xba, 
0x7e, 0xd2, 0x0a, 0xbe, 0x19, 0xb1, 0xba, 0xbc, 0xc4, 0x86, 0x22, 0x3d, 
0x76, 0xab, 0x5d, 0x3c, 0x06, 0x60, 0x45, 0x3d, 0xb4, 0x4e, 0xbc, 0x3d, 
0x54, 0x4d, 0xf6, 0xbc, 0xe3, 0x11, 0x1a, 0x3d, 0x48, 0x91, 0x50, 0x3c, 
0xfc, 0xe7, 0x4b, 0xbd, 0x44, 0x30, 0x6a, 0x3d, 0xbe, 0x25, 0x40, 0x3d, 
0x61, 0x1d, 0xf5, 0x3c, 0x00, 0x5c, 0x63, 0x3d, 0xd4, 0x37, 0xf2, 0x3c, 
0xb0, 0x25, 0xba, 0xbc, 0x82, 0xaa, 0x67, 0x3d, 0x0f, 0x01, 0x2c, 0x3d, 
0xa6, 0xab, 0x7c, 0x3c, 0x24, 0xb3, 0x31, 0x3d, 0x06, 0x01, 0xe8, 0xbc, 
0x43, 0x95, 0x44, 0xbd, 0xd5, 0xa9, 0xd5, 0x3d, 0x87, 0x0c, 0x53, 0x3d, 
0x8c, 0x72, 0x1b, 0x3d, 0x9e, 0x50, 0x7d, 0xbb, 0x1c, 0xce, 0xaa, 0x3c, 
0x0a, 0xdc, 0xa5, 0xbc, 0x3d, 0x9a, 0xd1, 0x3d, 0x90, 0x6f, 0x0c, 0x3d, 
0x5a, 0x9e, 0x61, 0xbd, 0x5d, 0xb3, 0x61, 0xbc, 0x18, 0x9f, 0xad, 0x3c, 
0xc0, 0xbc, 0x1c, 0x3d, 0x44, 0xb2, 0x92, 0x3d, 0x3d, 0x09, 0x31, 0x3c, 
0xba, 0x59, 0xfc, 0x3c, 0x13, 0xbd, 0x7c, 0x3d, 0x2a, 0x00, 0x43, 0x3d, 
0x48, 0x01, 0x09, 0x3d, 0xc1, 0x07, 0x0a, 0x3d, 0x28, 0x80, 0x70, 0xbd, 
0x3f, 0x95, 0x29, 0xbe, 0xa7, 0x8a, 0x8b, 0x3c, 0x9c, 0x5c, 0x83, 0xbd, 
0x9f, 0x6c, 0xec, 0x3c, 0x7f, 0x80, 0xb9, 0x3d, 0x8c, 0xd2, 0x90, 0xbd, 
0xa3, 0x68, 0x89, 0xbd, 0x95, 0xda, 0xd6, 0x3c, 0xa0, 0x62, 0xa5, 0xba, 
0xd2, 0xb3, 0x07, 0xbd, 0x63, 0xf7, 0xdd, 0x3d, 0xf5, 0x37, 0x2a, 0x3c, 
0x03, 0x5f, 0x24, 0xbd, 0x5c, 0x12, 0x97, 0xbc, 0x16, 0xc7, 0x04, 0xbd, 
0x91, 0x80, 0x36, 0x39, 0xb1, 0x2c, 0x4b, 0x3d, 0xb8, 0x1a, 0x9e, 0x3d, 
0x00, 0xc2, 0x36, 0xbd, 0x65, 0x45, 0xe0, 0xbc, 0xc0, 0x3c, 0xb2, 0x3a, 
0xf4, 0xfd, 0xec, 0x3c, 0x89, 0xdf, 0x6d, 0x3d, 0xd5, 0x8b, 0xea, 0x3c, 
0x11, 0x57, 0x0c, 0x3c, 0x33, 0x20, 0x69, 0xbc, 0xbf, 0xa2, 0xfd, 0xbc, 
0x4b, 0x1a, 0xf9, 0x3c, 0xd8, 0x07, 0xb3, 0x3d, 0x7a, 0xd9, 0x62, 0x3d, 
0x1f, 0xd0, 0xd4, 0xbd, 0x98, 0xa0, 0xf7, 0xbc, 0x90, 0xb1, 0xd2, 0x3b, 
0x46, 0x00, 0x1c, 0x3c, 0xcd, 0x7d, 0xf2, 0x3c, 0xdd, 0x47, 0x8e, 0x3d, 
0x71, 0x8c, 0xe2, 0xbc, 0x6a, 0x35, 0xd8, 0x3c, 0x4e, 0x65, 0x1a, 0x3d, 
0xd4, 0x6f, 0x40, 0xbd, 0x88, 0x7f, 0x86, 0x3d, 0x1c, 0x59, 0x44, 0xbd, 
0xa6, 0x97, 0xa1, 0xbd, 0xf5, 0x38, 0x1d, 0xbc, 0xc0, 0x79, 0x59, 0x3b, 
0x78, 0x37, 0x19, 0xbd, 0x89, 0xf8, 0x04, 0x3d, 0x1d, 0x50, 0xfc, 0xbc, 
0x2a, 0x11, 0x53, 0xbd, 0x3f, 0x3d, 0x8d, 0xbc, 0x8a, 0x4e, 0x47, 0x3d, 
0xa1, 0x38, 0x4a, 0x3c, 0xab, 0x75, 0xf2, 0x3c, 0xc9, 0xe0, 0x2a, 0x3d, 
0xbd, 0x04, 0xb9, 0xbd, 0xbd, 0x60, 0x32, 0x3d, 0x8e, 0x33, 0xc1, 0xbc, 
0x87, 0xb3, 0xfb, 0x3c, 0xf4, 0xea, 0x7f, 0x3d, 0xff, 0x6d, 0x8c, 0x3d, 
0x3e, 0x18, 0xe5, 0xbd, 0xc3, 0x25, 0x0b, 0xbd, 0x2a, 0x3c, 0x08, 0x3d, 
0x2b, 0x7f, 0x0d, 0xbb, 0xfd, 0x36, 0x12, 0x3d, 0xfb, 0x21, 0x10, 0xbd, 
0x89, 0xdc, 0x50, 0xbc, 0xb8, 0x1c, 0x2d, 0x3d, 0x70, 0xa4, 0x55, 0xbb, 
0x89, 0x71, 0x40, 0xbc, 0x75, 0xbf, 0x53, 0x3d, 0x31, 0xf1, 0x82, 0xbc, 
0x5a, 0xf8, 0xe4, 0xbd, 0x30, 0x40, 0x1c, 0xbd, 0xb6, 0x72, 0x85, 0xbc, 
0x8c, 0xfc, 0x36, 0x3c, 0x1b, 0x2e, 0x07, 0x3d, 0xc6, 0x9b, 0xf4, 0xbc, 
0xe8, 0x0b, 0x01, 0xbd, 0x4d, 0xb7, 0x15, 0xbc, 0x68, 0x5c, 0x36, 0x3d, 
0x79, 0xda, 0x14, 0xbd, 0x77, 0x9d, 0x28, 0x3d, 0x54, 0x0d, 0x7c, 0x3d, 
0x84, 0x4b, 0xf3, 0xbd, 0xc2, 0x36, 0xba, 0x3c, 0x40, 0x40, 0x78, 0xbb, 
0x96, 0x77, 0x0a, 0x3d, 0xe2, 0x8e, 0x44, 0x3c, 0xc0, 0xa7, 0x48, 0xbd, 
0x11, 0xdc, 0x08, 0xbe, 0x1e, 0x59, 0xaa, 0x3b, 0xb8, 0x5b, 0x87, 0xbc, 
0x5f, 0xcd, 0xc2, 0x3c, 0x07, 0xe7, 0x80, 0x3d, 0x8f, 0xec, 0xa4, 0xbd, 
0x3e, 0x0f, 0x39, 0xbd, 0x5a, 0xcb, 0x4e, 0x3d, 0x48, 0x25, 0x2f, 0xbd, 
0x76, 0x00, 0x25, 0xbd, 0x6c, 0x3c, 0xc2, 0x3c, 0x17, 0x44, 0x6c, 0x3d, 
0x43, 0x96, 0x19, 0x3d, 0x83, 0x8a, 0x95, 0x3d, 0xa4, 0xd2, 0xeb, 0x3c, 
0xda, 0x6c, 0x8d, 0xbc, 0x63, 0x7a, 0xdd, 0x3d, 0x97, 0x0c, 0x3f, 0x3b, 
0x25, 0xa5, 0x89, 0xbd, 0xa1, 0xac, 0x9e, 0xb9, 0x29, 0x4b, 0x45, 0xbd, 
0xd2, 0xc4, 0x55, 0xbd, 0xdd, 0x24, 0x72, 0x3c, 0xc1, 0xf0, 0x87, 0xbd, 
0x66, 0x89, 0x08, 0xbe, 0xd5, 0xc5, 0xb0, 0x3a, 0xe6, 0x10, 0x19, 0x3d, 
0x7a, 0xcd, 0x24, 0x3d, 0xfd, 0xf9, 0x9b, 0x3d, 0x09, 0xab, 0x94, 0x3c, 
0xb0, 0x68, 0x81, 0xbd, 0xbf, 0x36, 0xf0, 0x3b, 0x74, 0x56, 0xf7, 0x3c, 
0x8f, 0x12, 0x3d, 0xbd, 0xc7, 0xde, 0xf1, 0x3c, 0x70, 0x44, 0x7d, 0x3c, 
0x8e, 0xcd, 0x0a, 0x3d, 0x61, 0x99, 0x00, 0x3d, 0x94, 0x9f, 0x1e, 0xbc, 
0xba, 0x31, 0x18, 0x3d, 0x7e, 0x11, 0x39, 0x3d, 0xf3, 0x12, 0xab, 0x3d, 
0xe5, 0xf8, 0x03, 0x3d, 0x8d, 0xb1, 0xf8, 0x3b, 0x1c, 0x00, 0x73, 0xbc, 
0xee, 0xb9, 0x14, 0x3d, 0x59, 0x17, 0xc9, 0x3c, 0xb8, 0x9e, 0x39, 0xbd, 
0x0c, 0x4a, 0xdc, 0xbd, 0x23, 0xa6, 0x11, 0x3c, 0x70, 0x66, 0x73, 0x3c, 
0xfc, 0xbd, 0x2a, 0xbc, 0x4e, 0x18, 0x41, 0xbc, 0xea, 0xc6, 0x3a, 0x3c, 
0xcc, 0x82, 0xca, 0xbd, 0xb1, 0x03, 0x5e, 0x3d, 0x83, 0x9f, 0x18, 0xbd, 
0xbe, 0x58, 0x25, 0xbc, 0x25, 0x13, 0xcb, 0x3d, 0x43, 0x06, 0x10, 0x3e, 
0x54, 0x04, 0x67, 0xbe, 0xfb, 0xb8, 0x15, 0xbd, 0xc4, 0x34, 0x88, 0xbc, 
0x74, 0xb8, 0xfc, 0x3c, 0xc2, 0x8f, 0xdf, 0x3d, 0xde, 0x49, 0x29, 0xbb, 
0xd8, 0xd9, 0x0d, 0xbc, 0x20, 0x60, 0xb1, 0xbc, 0x58, 0x2f, 0x2d, 0xbc, 
0x6d, 0x61, 0xe1, 0xbb, 0x45, 0x59, 0xf7, 0x3d, 0x79, 0x15, 0x43, 0x3d, 
0x79, 0xa2, 0xb5, 0x3d, 0xcd, 0xe1, 0x07, 0xbd, 0x9c, 0xea, 0xfb, 0xbc, 
0x2e, 0x83, 0x20, 0xbd, 0x4a, 0x87, 0xf9, 0x3d, 0x18, 0xdd, 0x69, 0x3c, 
0x24, 0x06, 0xf4, 0x3d, 0x9f, 0x5c, 0x32, 0x3d, 0xd0, 0x72, 0xaa, 0x3c, 
0xf3, 0x49, 0xb1, 0x3c, 0x65, 0x86, 0x29, 0x3d, 0x88, 0x5d, 0x94, 0x3c, 
0x16, 0x65, 0xe3, 0xbd, 0x6b, 0xbc, 0x86, 0x3b, 0x04, 0xef, 0x2c, 0x3c, 
0xf2, 0x98, 0x94, 0x3c, 0x42, 0xe9, 0x3b, 0xba, 0x9d, 0xc2, 0x0b, 0xbe, 
0x1e, 0x1e, 0xe9, 0xbd, 0xe9, 0x04, 0xb5, 0xbc, 0xe4, 0x70, 0xc9, 0x3c, 
0xe3, 0x6c, 0x93, 0x3c, 0xae, 0xb8, 0x58, 0x3c, 0x38, 0x4e, 0x0a, 0xbe, 
0x7e, 0x48, 0xd9, 0xbd, 0xe2, 0xe2, 0xbd, 0x3b, 0xfc, 0xb7, 0xa1, 0x3c, 
0x70, 0x13, 0x21, 0xbd, 0x41, 0xaa, 0xa2, 0x3d, 0x97, 0x34, 0x83, 0x3d, 
0x64, 0xb2, 0xa0, 0x3b, 0xb1, 0xfb, 0xfb, 0x3c, 0x08, 0xb3, 0xab, 0x3c, 
0x13, 0xed, 0xba, 0xbc, 0x70, 0x32, 0x39, 0x3d, 0xf7, 0xfa, 0x9c, 0xbd, 
0x54, 0xf2, 0x8c, 0xbd, 0xe0, 0xf6, 0xae, 0x3b, 0x28, 0xf6, 0x95, 0x3c, 
0x66, 0x86, 0x4a, 0xbd, 0x72, 0xa0, 0xa1, 0x3d, 0x6f, 0xfc, 0x00, 0xbb, 
0x44, 0x0e, 0xde, 0xbd, 0x3f, 0xbf, 0xec, 0xbc, 0x58, 0x82, 0x04, 0x3d, 
0xc0, 0x61, 0x85, 0xbb, 0x6b, 0x87, 0x8d, 0x3c, 0x85, 0x4e, 0xcb, 0x3d, 
0x80, 0xab, 0xa6, 0xbb, 0x48, 0xb8, 0xc9, 0x3c, 0x50, 0x04, 0x76, 0x3c, 
0x12, 0xab, 0x30, 0xbd, 0xcb, 0xcb, 0x72, 0x3d, 0x54, 0x19, 0x1d, 0xbe, 
0xd4, 0x1c, 0x08, 0xbe, 0x9e, 0xa2, 0x93, 0x3c, 0xc0, 0x4b, 0xa7, 0xbb, 
0xf9, 0x26, 0x06, 0xbd, 0x3e, 0xa0, 0x56, 0xbb, 0x9b, 0x9e, 0x99, 0x3a, 
0xdb, 0xf4, 0xd4, 0xbd, 0x93, 0x36, 0x19, 0x3d, 0x5c, 0xf0, 0xd5, 0x3c, 
0xf5, 0x1a, 0x0c, 0xbd, 0xb2, 0x20, 0xdd, 0x3d, 0xb3, 0xa4, 0x10, 0x3c, 
0xd1, 0xe5, 0xb2, 0xbd, 0xba, 0x99, 0x07, 0xbd, 0x18, 0xc8, 0xfe, 0x3c, 
0xc9, 0x00, 0x15, 0xbd, 0xb0, 0xb2, 0xa4, 0x3d, 0x71, 0x65, 0xcd, 0xbd, 
0x74, 0x54, 0x93, 0xbd, 0xb3, 0x74, 0xed, 0x3c, 0xac, 0xe1, 0x38, 0x3d, 
0x62, 0x93, 0x29, 0xbc, 0x4f, 0x63, 0x37, 0x3d, 0xf5, 0xd3, 0xc0, 0xbd, 
0xb0, 0x58, 0x42, 0xbd, 0xd8, 0x7c, 0x4d, 0x3c, 0x38, 0x6e, 0x4c, 0x3c, 
0xde, 0x6c, 0xc0, 0xbc, 0x96, 0x8f, 0xe5, 0x3c, 0x5f, 0xbd, 0x8e, 0xbb, 
0x00, 0x7f, 0xbb, 0x3c, 0x6b, 0xd6, 0x21, 0xbc, 0xf0, 0xa9, 0x5f, 0xbb, 
0x14, 0xd4, 0x8c, 0xba, 0x94, 0xca, 0x08, 0x3e, 0x2d, 0x65, 0x3f, 0xbc, 
0x0a, 0x57, 0xdd, 0xbd, 0x16, 0x95, 0x16, 0x3d, 0x94, 0x20, 0x3a, 0x3d, 
0x1c, 0xdd, 0xd4, 0xbb, 0xf4, 0xdd, 0x76, 0x3d, 0x58, 0xb9, 0x32, 0xbe, 
0x4d, 0x1f, 0xb6, 0xbb, 0xbc, 0xc4, 0xe0, 0x3c, 0x14, 0xb9, 0x3e, 0x3c, 
0xb7, 0xb6, 0x05, 0x3c, 0x87, 0xcd, 0x00, 0x3e, 0x01, 0x26, 0xab, 0x3d, 
0xca, 0xb3, 0x6a, 0x3c, 0x4c, 0x2e, 0xca, 0x3b, 0xe4, 0x5f, 0x14, 0xbd, 
0x0e, 0xe6, 0xc4, 0x3c, 0xb0, 0xe4, 0x08, 0x3e, 0xe1, 0x47, 0xab, 0xbd, 
0xdf, 0x0e, 0x51, 0xbe, 0xb1, 0xec, 0xe1, 0x3c, 0xa4, 0x6c, 0x4e, 0xbc, 
0xe7, 0x21, 0xb3, 0x3c, 0x25, 0xeb, 0x59, 0xbc, 0x71, 0xc5, 0x5f, 0xbd, 
0x47, 0xb9, 0xc0, 0xbd, 0xf2, 0xe9, 0x21, 0xbd, 0x20, 0xc3, 0xce, 0x3c, 
0x27, 0x1e, 0x01, 0x3d, 0xfd, 0x51, 0xf2, 0x3d, 0x75, 0x40, 0xe2, 0x3d, 
0x45, 0x54, 0x92, 0xbc, 0xdf, 0xe9, 0xc3, 0xba, 0x3e, 0xd6, 0x06, 0xbd, 
0xd0, 0x3e, 0x58, 0xbd, 0xaf, 0x62, 0xc0, 0x3d, 0x15, 0x83, 0x6b, 0x3d, 
0x16, 0x4f, 0xad, 0x3c, 0x02, 0x5b, 0x59, 0x3d, 0xa6, 0xc2, 0x04, 0x3d, 
0x7b, 0x30, 0x21, 0x3d, 0xc4, 0x14, 0x1c, 0x3e, 0x66, 0xe3, 0x75, 0xbd, 
0xa5, 0x84, 0x9f, 0xbd, 0x05, 0xc7, 0xc0, 0xbc, 0xf8, 0x67, 0xf2, 0xbb, 
0x0a, 0xdb, 0x1c, 0x3d, 0x78, 0x79, 0xd8, 0x3c, 0x83, 0xd9, 0x80, 0x3d, 
0x57, 0x65, 0x71, 0xbd, 0xa8, 0x2f, 0x3e, 0xbc, 0x00, 0x2f, 0x21, 0xb9, 
0x32, 0xad, 0xb6, 0xbc, 0x7e, 0x7a, 0x46, 0x3d, 0x93, 0x65, 0xe3, 0xbd, 
0x10, 0x3f, 0x50, 0xbe, 0x95, 0xda, 0x4c, 0x3d, 0x8a, 0x96, 0x24, 0x3d, 
0xfb, 0x38, 0xd3, 0xbc, 0xe5, 0xa2, 0xe2, 0x3d, 0xc0, 0xba, 0xf3, 0x3d, 
0x20, 0x19, 0x29, 0xbc, 0xaa, 0xd0, 0xba, 0xbb, 0xf6, 0x87, 0x82, 0xbc, 
0xa9, 0x9d, 0x04, 0x3a, 0x39, 0x75, 0x0b, 0x3e, 0x18, 0x62, 0xbb, 0xbd, 
0x15, 0xac, 0x65, 0xbe, 0x86, 0xee, 0x38, 0xbd, 0x30, 0x9e, 0x20, 0xbc, 
0xc4, 0xae, 0x1a, 0x3c, 0x7e, 0x82, 0x2f, 0x3d, 0x7b, 0x20, 0x06, 0xbe, 
0x9e, 0xce, 0x16, 0xbe, 0x97, 0x1c, 0xcf, 0x3c, 0xaf, 0x4a, 0x1b, 0xbd, 
0x06, 0xa9, 0x12, 0x3d, 0xd1, 0x10, 0xc1, 0x3d, 0xa1, 0x81, 0x37, 0x3d, 
0xfd, 0x9e, 0x21, 0x3d, 0x97, 0x87, 0x76, 0xbc, 0x1c, 0xee, 0x81, 0xbc, 
0x50, 0xaa, 0x4a, 0xbd, 0x08, 0x07, 0xe9, 0x3d, 0x93, 0xfd, 0x33, 0x3d, 
0xbb, 0xdc, 0x1c, 0xbe, 0xa3, 0xb3, 0x0c, 0x3d, 0xd8, 0x9c, 0xbe, 0xbb, 
0xbc, 0x67, 0xc1, 0x3b, 0xa0, 0x84, 0xb4, 0xbc, 0x7e, 0xa4, 0xfa, 0xbd, 
0xc8, 0x6d, 0x0f, 0xbe, 0x4e, 0x81, 0xa7, 0xbd, 0xca, 0xbb, 0x02, 0xbd, 
0xd7, 0xd4, 0x22, 0x3d, 0xe5, 0xc3, 0xa8, 0xbd, 0x69, 0xea, 0x00, 0xbe, 
0xda, 0x09, 0x32, 0xbe, 0x22, 0xc5, 0x97, 0x3b, 0xe1, 0xf2, 0x74, 0xbd, 
0x04, 0x89, 0xc6, 0xbc, 0x36, 0xb8, 0x83, 0x3d, 0xe7, 0x89, 0xa0, 0xbb, 
0xa1, 0xbc, 0x9a, 0xbd, 0x9a, 0xe2, 0x86, 0x3c, 0x20, 0x5e, 0xb4, 0x3b, 
0xb9, 0x72, 0x31, 0xbd, 0xbb, 0x8b, 0x99, 0x3d, 0x78, 0xac, 0xc1, 0xbd, 
0x7f, 0xa6, 0x72, 0xbe, 0x7c, 0xba, 0x5d, 0x3d, 0xf4, 0xb2, 0x47, 0x3d, 
0x29, 0x43, 0xb0, 0xbb, 0x42, 0x55, 0x66, 0x3d, 0xff, 0x86, 0x91, 0xbc, 
0xcc, 0x42, 0x93, 0xbd, 0x56, 0xca, 0x54, 0x3d, 0x00, 0x0e, 0x08, 0xba, 
0x45, 0xc3, 0x9c, 0xbc, 0xc9, 0x25, 0x0e, 0x3c, 0x60, 0x40, 0x5b, 0xbc, 
0x00, 0x0a, 0x88, 0xbe, 0x5c, 0x70, 0x28, 0xbd, 0xb4, 0x12, 0x03, 0x3c, 
0x60, 0x7c, 0x85, 0xbb, 0xbd, 0xa9, 0x8a, 0x3d, 0x12, 0x99, 0x10, 0xbe, 
0x74, 0x04, 0x4e, 0xbe, 0x80, 0x3f, 0x04, 0x3d, 0xa5, 0xb1, 0xc9, 0xbc, 
0x09, 0xd1, 0xd9, 0xbc, 0xe0, 0x43, 0x29, 0x3d, 0x1e, 0xe9, 0xc0, 0x3d, 
0x92, 0xff, 0xdd, 0xbb, 0xb3, 0x3a, 0xe6, 0xbc, 0xc0, 0x30, 0x09, 0x3c, 
0x05, 0x13, 0xf8, 0x3c, 0xf3, 0xa3, 0xa5, 0x3d, 0x97, 0x89, 0xe6, 0x3c, 
0x4b, 0x43, 0x67, 0xbd, 0x7b, 0x4b, 0x8c, 0xbc, 0x28, 0x51, 0x12, 0xbd, 
0x97, 0xb7, 0x2b, 0x3c, 0xff, 0xad, 0x6d, 0x3d, 0x7e, 0x14, 0x35, 0x3d, 
0xdc, 0x03, 0xee, 0xbd, 0xa2, 0xf0, 0x1c, 0x3c, 0xe4, 0x66, 0x13, 0x3d, 
0xbc, 0xb2, 0x00, 0xbd, 0x79, 0xe7, 0xad, 0x3d, 0x76, 0x6e, 0xc7, 0xbc, 
0xc3, 0x82, 0xcc, 0xbd, 0x7a, 0x90, 0xa0, 0x3c, 0xa0, 0x1a, 0xdf, 0x3b, 
0x50, 0x7a, 0xbf, 0xbc, 0x56, 0x22, 0xa6, 0x3d, 0x72, 0x03, 0xbe, 0x3b, 
0xae, 0x1c, 0x14, 0xbd, 0x35, 0x1f, 0x4f, 0x3d, 0x88, 0xf6, 0x07, 0xbd, 
0x61, 0x6f, 0x38, 0x3c, 0x41, 0x84, 0xce, 0x3d, 0xf1, 0x18, 0x4c, 0x3d, 
0xbf, 0xf4, 0xbe, 0x3b, 0x59, 0xad, 0x93, 0x3d, 0xb4, 0x13, 0xd2, 0x3c, 
0x61, 0xa8, 0x66, 0x3c, 0x5b, 0xe2, 0x05, 0x3e, 0xff, 0xaa, 0xb8, 0x3c, 
0x98, 0xe9, 0xbc, 0xbd, 0x32, 0x62, 0xb4, 0xbc, 0xc0, 0x6e, 0x80, 0xbc, 
0x6f, 0xb8, 0x85, 0x3c, 0x02, 0x3f, 0x92, 0x3c, 0x26, 0xa4, 0xef, 0xbd, 
0x49, 0x88, 0x2c, 0xbe, 0x6b, 0x3d, 0x2e, 0xbd, 0xe4, 0x21, 0x3d, 0xbc, 
0xed, 0xb3, 0xdd, 0xbc, 0xc2, 0x33, 0xcf, 0x3d, 0xbd, 0x5c, 0xc7, 0x3d, 
0xc7, 0xf3, 0x1c, 0x3b, 0xc2, 0xeb, 0x39, 0x3c, 0x00, 0x42, 0xe3, 0xbb, 
0x88, 0x0e, 0x25, 0xbd, 0xef, 0xe6, 0x35, 0x3e, 0x98, 0x39, 0x85, 0x3d, 
0x4c, 0x61, 0xae, 0x3d, 0xbe, 0xeb, 0x21, 0x3d, 0xbe, 0x47, 0x2c, 0x3d, 
0x18, 0x85, 0x65, 0xbc, 0xc0, 0x00, 0x04, 0x3e, 0xf0, 0x3a, 0x3a, 0x3d, 
0xa5, 0x8d, 0xd7, 0xbd, 0x92, 0x5a, 0xe6, 0x3c, 0x8d, 0x52, 0xfc, 0xbc, 
0x35, 0x3b, 0xe2, 0xbb, 0x9d, 0xd0, 0xcd, 0x3d, 0x5f, 0xd7, 0x38, 0x3c, 
0x13, 0x1b, 0x94, 0xbd, 0x60, 0x4b, 0x6f, 0x3c, 0x05, 0x12, 0x9e, 0xbc, 
0x30, 0x1d, 0x16, 0x3c, 0xfe, 0x5a, 0xb2, 0x3d, 0xc7, 0xfc, 0x0b, 0x3e, 
0xef, 0x2f, 0x4d, 0x3d, 0x9a, 0x73, 0x92, 0x3a, 0x6c, 0x75, 0x0b, 0x3c, 
0x7d, 0x99, 0x17, 0xbd, 0x73, 0x74, 0xd6, 0x3d, 0x94, 0xb3, 0xaf, 0x3d, 
0x11, 0x7d, 0xdd, 0xbc, 0x25, 0xcb, 0xfd, 0x3b, 0x94, 0x2a, 0x82, 0x3c, 
0xe9, 0x8d, 0x8e, 0x3b, 0x4a, 0x68, 0x0f, 0x3e, 0x50, 0xfc, 0xb8, 0x3c, 
0xe2, 0x91, 0x7d, 0xbd, 0xa6, 0xad, 0x5e, 0xbb, 0x68, 0x07, 0x76, 0xbc, 
0xbc, 0xff, 0xb5, 0xbc, 0x02, 0xd8, 0x4e, 0x3d, 0xd2, 0x26, 0x15, 0xbe, 
0x04, 0x33, 0x0d, 0xbe, 0x0d, 0x1d, 0xf2, 0xbc, 0x51, 0x8c, 0xe2, 0xbc, 
0xca, 0xff, 0x91, 0x3b, 0x41, 0xc9, 0x95, 0x3d, 0x97, 0xbe, 0xe7, 0x3d, 
0x90, 0x17, 0x16, 0xbd, 0xe6, 0xa4, 0x51, 0x3d, 0x60, 0x35, 0x3c, 0x3b, 
0xb3, 0x4e, 0x68, 0xbd, 0x7b, 0x35, 0x10, 0x3e, 0x6d, 0xab, 0xb4, 0x3d, 
0x1d, 0x44, 0xde, 0x3b, 0xf7, 0xa3, 0xc4, 0x3c, 0xb4, 0xa3, 0xbe, 0xbc, 
0xe0, 0x4c, 0xd8, 0x3c, 0xf1, 0xb8, 0x02, 0x3e, 0x0d, 0xaa, 0xb2, 0x3d, 
0xfa, 0x71, 0x21, 0xbb, 0xe2, 0x90, 0xf1, 0x3c, 0x70, 0x68, 0x00, 0x3b, 
0x12, 0x4a, 0xf0, 0x3b, 0x5a, 0xfe, 0xb2, 0x3d, 0x66, 0x6c, 0x91, 0x3d, 
0x7c, 0x95, 0x08, 0xbd, 0x5a, 0x71, 0x21, 0x3b, 0xec, 0x78, 0x23, 0x3c, 
0x4e, 0x3e, 0x59, 0xbd, 0xea, 0x56, 0x07, 0x3d, 0xd3, 0xca, 0x4d, 0xbd, 
0x04, 0xc3, 0xe4, 0x3c, 0x8c, 0x96, 0x77, 0x3b, 0xba, 0x1b, 0x13, 0xbd, 
0x3b, 0xbc, 0x3b, 0xbd, 0x5d, 0x09, 0x88, 0x3d, 0x86, 0x71, 0x9d, 0x3d, 
0xc1, 0x18, 0x6e, 0x3c, 0x55, 0xd1, 0x9c, 0x3c, 0xee, 0xa0, 0x1e, 0xbd, 
0xda, 0x48, 0x1d, 0xbd, 0xdb, 0x1b, 0x21, 0x3e, 0x34, 0x06, 0x47, 0x3d, 
0x5c, 0x7a, 0xe8, 0xbd, 0xaf, 0x34, 0x46, 0xbd, 0x1c, 0x09, 0xa1, 0x3c, 
0x5d, 0x1d, 0xa4, 0xbc, 0x5c, 0xea, 0x18, 0x3c, 0xbd, 0x8a, 0xc9, 0xbd, 
0x4a, 0x43, 0x8f, 0xbc, 0x2f, 0x42, 0x50, 0xbc, 0x94, 0xea, 0x5c, 0xbd, 
0xcb, 0x02, 0x6b, 0x3c, 0x10, 0xb8, 0x12, 0x3c, 0x29, 0x5c, 0xc1, 0x3d, 
0x0d, 0x4b, 0x9c, 0x3d, 0xf2, 0xc2, 0xa8, 0x3d, 0x38, 0xf3, 0x7d, 0xbd, 
0x16, 0xe3, 0xd9, 0x3c, 0xc6, 0x23, 0xbb, 0x3d, 0x9b, 0x23, 0xf9, 0x3d, 
0xb0, 0x03, 0x9f, 0x3d, 0xdc, 0xc5, 0x97, 0xba, 0x90, 0xc3, 0x0d, 0x3d, 
0x51, 0x9d, 0x91, 0xbc, 0x45, 0x3f, 0x7f, 0x3d, 0x9e, 0x9a, 0xd7, 0xbc, 
0x77, 0x72, 0x12, 0xbe, 0xa9, 0x27, 0x35, 0x3c, 0x14, 0xf8, 0x3e, 0x3d, 
0x96, 0x49, 0x0a, 0x3d, 0x4a, 0x63, 0xb7, 0xbd, 0x72, 0x26, 0x12, 0x3d, 
0x31, 0x69, 0xec, 0x3d, 0x24, 0x3b, 0x7e, 0x3c, 0x66, 0xfe, 0x81, 0xbc, 
0x18, 0xc9, 0xe2, 0x3c, 0x93, 0x00, 0xe4, 0x3d, 0xab, 0x78, 0x9d, 0x3d, 
0xc9, 0x62, 0x69, 0x3d, 0x77, 0x97, 0x5f, 0x3c, 0x74, 0xb6, 0x2a, 0x3d, 
0xcf, 0x73, 0x3e, 0x3c, 0x09, 0xf7, 0x48, 0x3d, 0x4f, 0xf8, 0x88, 0xbd, 
0xf0, 0x0c, 0x47, 0xbe, 0x63, 0xb4, 0x92, 0xbc, 0xbe, 0x91, 0xf8, 0xbc, 
0x49, 0xfe, 0x17, 0xbc, 0xff, 0x74, 0x37, 0xbd, 0xa7, 0xf2, 0x0e, 0xbe, 
0xbf, 0xcf, 0xc1, 0xbd, 0x92, 0xc2, 0xf0, 0x3c, 0xf0, 0x50, 0x09, 0xbb, 
0x6e, 0x81, 0x10, 0xbd, 0xb5, 0x97, 0x2c, 0x3d, 0x37, 0xe4, 0x1e, 0x3d, 
0xc8, 0x1c, 0x22, 0x3d, 0x8c, 0x9b, 0x63, 0x3d, 0x62, 0x81, 0x03, 0xbd, 
0x7d, 0xa3, 0x20, 0xbd, 0x49, 0x85, 0xd4, 0x3d, 0xa5, 0xb8, 0x2b, 0xbe, 
0x30, 0x6a, 0x17, 0xbe, 0xea, 0xad, 0x19, 0xbd, 0x78, 0xdf, 0xa3, 0x3c, 
0x7b, 0x69, 0x7a, 0x3c, 0x8e, 0x07, 0x28, 0x3d, 0x4b, 0xf9, 0x80, 0x3a, 
0x78, 0x6b, 0xd7, 0xbd, 0xd4, 0x2c, 0x5a, 0xb7, 0xb0, 0x11, 0x5a, 0xbb, 
0xb8, 0x41, 0x17, 0xbc, 0x62, 0xee, 0xbe, 0x3d, 0xf6, 0x7e, 0x83, 0xbe, 
0x49, 0x5d, 0x8b, 0xbe, 0xfc, 0x0f, 0x08, 0xbd, 0x6a, 0x1e, 0x95, 0xbc, 
0x96, 0xa9, 0xfb, 0xbc, 0xa6, 0x00, 0xfe, 0x3c, 0xa7, 0x3a, 0x0e, 0x3d, 
0x8e, 0xfd, 0x29, 0xbd, 0xa9, 0xa6, 0x55, 0x3c, 0xc8, 0x51, 0xb1, 0xbc, 
0x54, 0x51, 0x1e, 0x3d, 0x64, 0xed, 0xa4, 0x3d, 0x5f, 0x51, 0xa0, 0xbd, 
0x8c, 0xca, 0xef, 0xbd, 0xc2, 0x68, 0x38, 0x3d, 0x60, 0xd5, 0xe6, 0x3b, 
0xbc, 0xc1, 0x18, 0x3d, 0x19, 0xa9, 0xd0, 0x3d, 0x7f, 0xdc, 0x9c, 0xbc, 
0xd7, 0x62, 0xc3, 0xbd, 0x07, 0x97, 0xe4, 0xbc, 0x32, 0xa6, 0x3f, 0x3d, 
0xfe, 0xbb, 0x92, 0xbc, 0x94, 0x40, 0xe0, 0x3d, 0xb6, 0x19, 0x1c, 0x3e, 
0x20, 0x96, 0xae, 0xbd, 0xe9, 0x1f, 0x50, 0x3d, 0xe2, 0xba, 0x93, 0xbc, 
0x15, 0x24, 0x2e, 0x3c, 0x5e, 0xc0, 0x1a, 0x3e, 0x99, 0x35, 0xe5, 0xbd, 
0x6b, 0x3e, 0xe6, 0xbd, 0x57, 0xe0, 0x28, 0x3c, 0x58, 0x6f, 0xf6, 0x3b, 
0xc3, 0x63, 0x14, 0x3d, 0x94, 0xc6, 0xa8, 0x3d, 0xa3, 0x7f, 0x5f, 0xbd, 
0x4a, 0xbf, 0x12, 0xbe, 0x7a, 0xed, 0x5a, 0x3d, 0x3a, 0x58, 0x46, 0xbd, 
0x38, 0x99, 0xf4, 0x3c, 0x08, 0x2d, 0xec, 0x3d, 0x6a, 0xb1, 0xa1, 0x3d, 
0x12, 0xdf, 0x0b, 0xbc, 0x2e, 0xed, 0x97, 0x3c, 0xa1, 0xfa, 0x19, 0xbd, 
0xf6, 0xc6, 0x0c, 0xbd, 0x60, 0xeb, 0x3e, 0x3d, 0xcc, 0x9d, 0x74, 0xbc, 
0xfd, 0x83, 0x83, 0xbd, 0x9d, 0xb0, 0x41, 0x3d, 0x5c, 0xac, 0x29, 0x3d, 
0x69, 0x2a, 0x2d, 0x3c, 0x0c, 0x09, 0x0a, 0x3d, 0xc9, 0x5c, 0xe8, 0x3a, 
0xba, 0x6a, 0xb3, 0xbd, 0x1a, 0x95, 0x41, 0x3d, 0x50, 0xe7, 0xe6, 0xbb, 
0x68, 0x46, 0x7f, 0x3c, 0x37, 0x3e, 0xeb, 0x3d, 0x33, 0x23, 0x56, 0xbc, 
0x20, 0x53, 0x45, 0xbe, 0xd5, 0xb0, 0x8e, 0x3c, 0xf0, 0xbd, 0x19, 0x3d, 
0xed, 0x29, 0x9b, 0x3c, 0x3d, 0x93, 0x02, 0x3e, 0xbb, 0xfe, 0xc4, 0xbd, 
0x5a, 0x20, 0x5c, 0xbd, 0xce, 0x38, 0xec, 0xba, 0x0c, 0x6c, 0xf9, 0x3c, 
0x85, 0x5f, 0x0a, 0xbd, 0x6e, 0x49, 0x8c, 0x3d, 0x1c, 0xf1, 0x1a, 0x3d, 
0x7f, 0x4d, 0x01, 0x3e, 0x05, 0x1d, 0xe3, 0x3c, 0xce, 0x87, 0x00, 0xbd, 
0x9d, 0xe0, 0x21, 0xbd, 0x60, 0xb3, 0x51, 0x3d, 0x71, 0x40, 0x52, 0x3d, 
0xc8, 0xeb, 0x86, 0x3d, 0x94, 0x6a, 0x93, 0x3c, 0x7e, 0x98, 0x1f, 0xbd, 
0x36, 0x43, 0x10, 0x3d, 0xf3, 0x8d, 0xb3, 0x3d, 0x7a, 0xdf, 0x6d, 0xbd, 
0x7e, 0x0e, 0x0e, 0xbe, 0x03, 0xe6, 0x50, 0x3d, 0xe8, 0x93, 0xfa, 0x3b, 
0x75, 0xf5, 0xdd, 0x3c, 0x2b, 0x37, 0xbc, 0x3d, 0x2a, 0xfa, 0x26, 0x3c, 
0x1f, 0x18, 0x01, 0xbe, 0xa8, 0x96, 0xde, 0xbc, 0x40, 0xce, 0x15, 0x3b, 
0x19, 0x26, 0xf9, 0x3c, 0xac, 0xdc, 0x78, 0x3d, 0x44, 0x28, 0xf1, 0x3c, 
0xfc, 0x6e, 0xe9, 0xbd, 0x39, 0x22, 0x1c, 0x3c, 0x04, 0x14, 0x47, 0x3d, 
0xad, 0x6d, 0x4e, 0xbc, 0x3d, 0xb6, 0x06, 0x3e, 0x68, 0x81, 0x80, 0x3d, 
0x40, 0x08, 0x2c, 0xbe, 0xfd, 0xa4, 0xfd, 0x3a, 0x8d, 0x1d, 0x38, 0xbd, 
0xeb, 0xdb, 0x11, 0x3d, 0xe3, 0x62, 0xa0, 0x3d, 0xb8, 0x28, 0xe0, 0xbd, 
0x8a, 0xb7, 0xa2, 0xbd, 0x4b, 0xca, 0x24, 0xbb, 0xdc, 0x55, 0xbc, 0xbc, 
0x31, 0x91, 0x5b, 0xbd, 0xcf, 0x57, 0xa7, 0x3d, 0x82, 0x09, 0xce, 0x3d, 
0x78, 0xec, 0x25, 0x3d, 0x6f, 0x0a, 0xf8, 0x3c, 0xd2, 0x91, 0x2b, 0xbd, 
0x0c, 0xb2, 0x85, 0x3c, 0xf2, 0x81, 0xd8, 0x3d, 0x50, 0xf7, 0xc2, 0x3d, 
0x59, 0xec, 0xca, 0x3d, 0x69, 0xce, 0x65, 0x3d, 0x64, 0x1d, 0x7c, 0xbc, 
0x53, 0x04, 0x50, 0xbc, 0xf7, 0x22, 0xc8, 0x3d, 0x08, 0xab, 0x8e, 0x3d, 
0xb2, 0x58, 0x00, 0x3d, 0x3d, 0xc2, 0x47, 0x3d, 0x22, 0x63, 0x00, 0xbd, 
0xa6, 0xbf, 0xde, 0x3c, 0xe4, 0x1c, 0x05, 0x3e, 0x06, 0xf3, 0x79, 0x3d, 
0xdc, 0xb9, 0x14, 0xbe, 0xc9, 0xeb, 0x07, 0xbd, 0xa8, 0x02, 0xa4, 0xbb, 
0xcf, 0x5a, 0x98, 0x3c, 0x1a, 0xe9, 0xd4, 0x3b, 0x22, 0xb4, 0x44, 0xbd, 
0x71, 0x76, 0x2e, 0xbd, 0xde, 0x91, 0x40, 0xbb, 0x80, 0xcf, 0x6c, 0xbb, 
0xf2, 0x90, 0xd2, 0xbc, 0x59, 0xb1, 0xcb, 0x3d, 0xd2, 0x2c, 0x11, 0x3d, 
0x8e, 0x4a, 0x35, 0x3d, 0x35, 0xee, 0x55, 0x3d, 0xab, 0xb7, 0x9c, 0xbc, 
0xf8, 0xec, 0xca, 0x3b, 0x05, 0x79, 0xaa, 0x3d, 0x7f, 0xe8, 0x77, 0x3d, 
0x4c, 0x97, 0xd3, 0x3d, 0x5e, 0x50, 0xb0, 0x3d, 0x08, 0x64, 0x8d, 0x3b, 
0x9d, 0xac, 0x03, 0xbd, 0x52, 0x9c, 0x8d, 0x3d, 0xb4, 0x33, 0xb1, 0x3d, 
0x7d, 0x3f, 0xdd, 0xbd, 0x3f, 0x3d, 0x6f, 0x3d, 0x36, 0xbb, 0x03, 0xbd, 
0x23, 0xcd, 0xef, 0xbb, 0x6d, 0x77, 0x6d, 0x3d, 0xe1, 0xbd, 0x90, 0xbd, 
0x62, 0x9d, 0xf1, 0xbd, 0x83, 0x55, 0x0f, 0x3d, 0x19, 0xf3, 0xff, 0xbc, 
0x6d, 0x63, 0x40, 0x3c, 0x05, 0x3c, 0x89, 0xbd, 0x12, 0x3a, 0xbf, 0xbd, 
0xfd, 0x9c, 0xe8, 0xbd, 0x11, 0x48, 0x05, 0x3d, 0xc0, 0x90, 0xcf, 0xbc, 
0x69, 0x2b, 0x2e, 0x3d, 0xad, 0x12, 0x48, 0xbb, 0xe7, 0xf3, 0x6e, 0xbd, 
0xc7, 0xb3, 0xab, 0xbc, 0x8d, 0x2e, 0x67, 0x3d, 0x94, 0x17, 0x23, 0xbc, 
0x08, 0xe9, 0x2d, 0x38, 0x31, 0x4c, 0xc8, 0x3d, 0x7f, 0x01, 0x70, 0x3d, 
0x12, 0x33, 0x49, 0xbd, 0x89, 0x82, 0xbc, 0xbb, 0x00, 0xa8, 0xbf, 0xbc, 
0xcd, 0x31, 0xe2, 0xbc, 0xff, 0x73, 0x0f, 0x3e, 0x33, 0x91, 0x86, 0xbd, 
0x1f, 0x43, 0x83, 0xbd, 0xc6, 0x04, 0xec, 0x3c, 0xa5, 0x35, 0xe9, 0xbc, 
0x7c, 0x71, 0x0e, 0x3c, 0xd0, 0xff, 0xf3, 0x3d, 0x24, 0xd7, 0xfd, 0x3d, 
0x57, 0xe8, 0xa2, 0xbd, 0x7a, 0xe8, 0x00, 0x3a, 0x78, 0x62, 0x8d, 0xbc, 
0x6e, 0x76, 0x01, 0x3d, 0x88, 0xf5, 0xcc, 0x3d, 0x7f, 0xe6, 0x92, 0x3c, 
0x1d, 0x21, 0x18, 0xbe, 0xa8, 0x15, 0xb5, 0xbc, 0xac, 0x40, 0x81, 0x3c, 
0xf7, 0xbe, 0x98, 0x3b, 0xe9, 0x3e, 0x7e, 0x3d, 0x90, 0x1a, 0x16, 0xbe, 
0x19, 0xef, 0x3c, 0xbe, 0x15, 0x2e, 0x0e, 0x3c, 0xa2, 0x17, 0x0e, 0x3d, 
0xe1, 0x1a, 0x24, 0xbd, 0xb4, 0x64, 0x7d, 0x3d, 0x3b, 0x54, 0x95, 0xbd, 
0xfa, 0x43, 0x46, 0xbe, 0x77, 0x52, 0x16, 0xbc, 0xaa, 0x95, 0x3c, 0x3d, 
0xb5, 0x57, 0x4e, 0xbd, 0x31, 0x3d, 0x5f, 0x3d, 0xd1, 0xe9, 0xec, 0xbc, 
0xdd, 0x01, 0x8d, 0xbd, 0x9f, 0x05, 0x22, 0xbc, 0xfc, 0xf3, 0xee, 0x3c, 
0x4e, 0x0c, 0xc0, 0xb9, 0x25, 0xe3, 0xe4, 0x3d, 0xdb, 0x5d, 0x70, 0xbd, 
0x0e, 0x93, 0xcf, 0xbd, 0x9d, 0xf6, 0x5a, 0x3c, 0xdc, 0xa5, 0x2b, 0x3c, 
0x14, 0x9e, 0x24, 0xbc, 0x52, 0xd1, 0x50, 0x3d, 0x9b, 0xa4, 0x54, 0x3d, 
0x60, 0xf0, 0x9d, 0xbc, 0xa0, 0x1d, 0x53, 0x3d, 0x14, 0x77, 0x73, 0xbc, 
0x73, 0x84, 0x33, 0xbd, 0x59, 0x67, 0xf3, 0x3d, 0x5d, 0x8a, 0x07, 0x3d, 
0xa8, 0x31, 0xc5, 0xbd, 0xfa, 0x7d, 0x6f, 0x3d, 0xc9, 0xad, 0x45, 0xbd, 
0x69, 0x3f, 0xf5, 0xbb, 0x50, 0x2f, 0xc0, 0x3d, 0xbd, 0x79, 0x31, 0x3c, 
0x89, 0x35, 0xad, 0x3d, 0x33, 0x3e, 0x82, 0x3d, 0x7d, 0x74, 0x48, 0xbe, 
0x8b, 0x8f, 0x0e, 0xbc, 0xf7, 0xa0, 0xb3, 0x3d, 0xc1, 0xe9, 0x98, 0x3d, 
0xb6, 0x50, 0xdb, 0x3c, 0xe2, 0xea, 0x8b, 0x3d, 0x93, 0xc4, 0x65, 0xbc, 
0x73, 0xee, 0x0f, 0x3c, 0x24, 0x22, 0xab, 0x3d, 0xc6, 0x71, 0xaf, 0x3b, 
0x3a, 0x69, 0x19, 0x3d, 0x7d, 0x81, 0xac, 0x3b, 0x28, 0xc2, 0xee, 0x3c, 
0x91, 0xab, 0x32, 0x3c, 0x67, 0xe3, 0x86, 0x3d, 0x8a, 0xbe, 0xb9, 0x3c, 
0x83, 0xe4, 0x9e, 0x3c, 0xd6, 0xdf, 0x1b, 0x3d, 0xc0, 0xd6, 0x34, 0xbc, 
0x68, 0xb0, 0x4d, 0xbd, 0xd2, 0x4c, 0xcf, 0x3d, 0x59, 0x7d, 0xed, 0x3d, 
0x17, 0x8b, 0xa2, 0x3d, 0x65, 0x75, 0x1d, 0x3d, 0x66, 0x72, 0x12, 0x3d, 
0xfb, 0x4f, 0x61, 0xba, 0x25, 0x7a, 0xc2, 0x3d, 0x43, 0xe8, 0xb3, 0x3d, 
0x95, 0x51, 0xa6, 0x3d, 0x42, 0x09, 0x43, 0x3d, 0xf0, 0xe5, 0x91, 0xbc, 
0x3f, 0x25, 0xcc, 0xbc, 0x12, 0x57, 0x85, 0x3d, 0xba, 0x68, 0xde, 0x3d, 
0xdd, 0x86, 0xf5, 0x3d, 0xe4, 0x7f, 0x1c, 0x3c, 0xd8, 0xed, 0x65, 0xbc, 
0x82, 0x46, 0xfe, 0x3c, 0x18, 0x88, 0xc8, 0x3d, 0xae, 0x06, 0xab, 0x3d, 
0x16, 0xf0, 0xc7, 0x3d, 0x2b, 0xcb, 0x95, 0x3d, 0x80, 0xa6, 0x27, 0x3b, 
0x6a, 0x5e, 0xb9, 0x3c, 0xe2, 0xdc, 0xf0, 0x3d, 0xf7, 0x4a, 0xaf, 0x3d, 
0x0e, 0x64, 0xb9, 0x3d, 0x8c, 0xf1, 0xec, 0x3c, 0xa6, 0xd8, 0x3d, 0x3d, 
0x3c, 0x1d, 0x44, 0xbd, 0x38, 0x93, 0x41, 0x3d, 0xfc, 0x72, 0xba, 0x3c, 
0x8d, 0x30, 0xd0, 0xbb, 0x2f, 0x9d, 0xc1, 0x3a, 0x02, 0x1b, 0x2c, 0xbd, 
0xbc, 0xbb, 0x41, 0xbc, 0x6d, 0x0a, 0xe2, 0x3d, 0xa5, 0xfb, 0x4c, 0x3d, 
0x23, 0xde, 0x1c, 0xbb, 0xfc, 0x10, 0x4f, 0xbc, 0xea, 0xe0, 0x99, 0xbc, 
0x9e, 0xad, 0xf1, 0x3b, 0xa4, 0xb7, 0x54, 0x3d, 0xca, 0x18, 0xdb, 0x3d, 
0xe3, 0xaf, 0xcd, 0xbd, 0x3a, 0x28, 0xdf, 0xbc, 0xb6, 0xe9, 0x35, 0x3d, 
0xe1, 0x95, 0xcf, 0xbc, 0x5f, 0x46, 0xed, 0x3d, 0x65, 0x60, 0x0e, 0x3e, 
0x0d, 0xe1, 0x29, 0x3d, 0x37, 0xf5, 0x83, 0x3d, 0xf9, 0x33, 0xd8, 0xbc, 
0xb4, 0xdb, 0x0d, 0x3d, 0x89, 0x4a, 0x1d, 0x3d, 0x84, 0xd1, 0xab, 0xbc, 
0xbc, 0x5c, 0x47, 0x3c, 0x9c, 0x04, 0x5f, 0xbc, 0xa0, 0x5e, 0x28, 0x3d, 
0x36, 0x22, 0xbb, 0xbc, 0x01, 0x75, 0xc3, 0x3c, 0xfb, 0x69, 0x0f, 0x3d, 
0x6e, 0x8d, 0x9b, 0xbd, 0x79, 0x02, 0xf0, 0x3c, 0x1c, 0x40, 0x6f, 0xbc, 
0x05, 0x3b, 0x0a, 0xbd, 0xd0, 0xb7, 0xb7, 0x3d, 0x51, 0x54, 0x81, 0x3d, 
0x5d, 0xf3, 0x70, 0xbd, 0xee, 0x9b, 0x34, 0x3d, 0x3a, 0x20, 0x05, 0x3d, 
0xcd, 0x26, 0x2d, 0xbd, 0xdf, 0x5f, 0xb2, 0x3d, 0xb0, 0x64, 0xf1, 0x3d, 
0x3a, 0xe7, 0xfb, 0xbc, 0x2c, 0x40, 0x7f, 0x3a, 0x28, 0x91, 0x96, 0x3c, 
0x52, 0x9a, 0x6d, 0x3c, 0xc7, 0x77, 0xf1, 0x3c, 0x56, 0x5e, 0x85, 0xbc, 
0x9f, 0x81, 0xbf, 0x3c, 0x40, 0xe7, 0x55, 0x3c, 0x13, 0xcb, 0x3c, 0xbd, 
0x46, 0x99, 0x35, 0xbd, 0x8d, 0x26, 0x3f, 0x3d, 0xd8, 0x22, 0x43, 0x3d, 
0xe9, 0x7b, 0x81, 0x3d, 0xee, 0x95, 0x38, 0x3d, 0x38, 0x36, 0x67, 0x3c, 
0xc9, 0xf2, 0x82, 0xbc, 0xdd, 0x04, 0x0a, 0x3e, 0x6e, 0xd1, 0xed, 0x3d, 
0xfb, 0xfd, 0x8c, 0xbd, 0x38, 0x76, 0x4a, 0xbd, 0x86, 0x7e, 0x35, 0x3d, 
0x9f, 0x20, 0x57, 0xbd, 0x5e, 0xc3, 0xa4, 0x3c, 0xba, 0x78, 0xab, 0x3c, 
0xbc, 0x99, 0x10, 0xbc, 0xa9, 0x29, 0x66, 0x3d, 0x14, 0x7d, 0xd4, 0x3c, 
0x3f, 0xb1, 0x59, 0x3c, 0xc9, 0x3c, 0xbd, 0x3d, 0x3e, 0xac, 0x93, 0x3d, 
0x5a, 0x01, 0xbe, 0x3d, 0x4f, 0xf7, 0x68, 0x3d, 0xc0, 0x3e, 0x0a, 0xbd, 
0x75, 0x1c, 0x24, 0xbd, 0x57, 0x8e, 0x14, 0x3e, 0x15, 0xed, 0x2a, 0x3e, 
0x50, 0xc4, 0xe9, 0x3d, 0xac, 0x68, 0x76, 0x3d, 0x70, 0x7e, 0x78, 0x3c, 
0xfa, 0x0e, 0x4a, 0xbd, 0xc2, 0xdc, 0x2d, 0x3d, 0x28, 0x3c, 0xf0, 0x3d, 
0x96, 0xa4, 0x83, 0xbd, 0xfc, 0xdb, 0xe0, 0xbc, 0x9c, 0xed, 0x3e, 0xbc, 
0x2a, 0x42, 0x91, 0x3b, 0x12, 0x06, 0xbd, 0x3d, 0xfa, 0xdc, 0xba, 0xbc, 
0x74, 0xa2, 0x81, 0xbd, 0x42, 0x75, 0x2a, 0x3d, 0x3c, 0xb4, 0xc7, 0x3c, 
0x7f, 0x6b, 0xc6, 0x3c, 0xa6, 0x07, 0xe1, 0x3d, 0xee, 0xf4, 0xf5, 0x3d, 
0xc8, 0x4e, 0xa3, 0x3d, 0xd9, 0xc8, 0x7d, 0x3c, 0x90, 0x47, 0x23, 0x3d, 
0xb7, 0x9c, 0x5d, 0xbd, 0xc9, 0xb1, 0xa1, 0x3d, 0x9a, 0x4a, 0xac, 0x3d, 
0x24, 0x79, 0x95, 0xbd, 0x17, 0xff, 0x42, 0x3d, 0xb8, 0x6f, 0xc5, 0xbb, 
0xe3, 0x96, 0x70, 0x3c, 0x10, 0x47, 0xf5, 0x3c, 0x4c, 0x85, 0x94, 0x3d, 
0xd1, 0xd4, 0xd8, 0x3c, 0x42, 0x1f, 0x32, 0x3d, 0xa0, 0xe2, 0x21, 0x3d, 
0xf7, 0x8d, 0xb0, 0xbc, 0xf4, 0x83, 0xe4, 0x3c, 0xb1, 0xd1, 0xfd, 0x3c, 
0xdc, 0xdd, 0x8b, 0xbd, 0x46, 0xa8, 0xa4, 0xbc, 0xf4, 0xd1, 0xe4, 0x3c, 
0x01, 0xc1, 0xfd, 0xbc, 0xf4, 0xb7, 0xa8, 0x3d, 0x3c, 0x5d, 0xa7, 0x3c, 
0x6f, 0xa5, 0xe7, 0xbd, 0x0e, 0x83, 0x1b, 0x3d, 0x90, 0x31, 0x03, 0xbb, 
0x4d, 0x1a, 0x3f, 0xbd, 0x05, 0x9d, 0xab, 0x3d, 0x21, 0x4b, 0x1b, 0x3e, 
0xe2, 0xf8, 0x57, 0x3d, 0xcf, 0x3b, 0xf3, 0x3c, 0xf8, 0x1e, 0xbe, 0x3b, 
0xaa, 0x93, 0x52, 0x3c, 0x2d, 0xc1, 0xc2, 0x3c, 0x4b, 0xaa, 0x98, 0x3d, 
0x6b, 0xbc, 0xdb, 0x3d, 0xbc, 0x9f, 0x3a, 0x3d, 0x08, 0x5b, 0x00, 0xbc, 
0x5a, 0x4a, 0x6d, 0xbd, 0x88, 0x5f, 0xc7, 0x3d, 0xe3, 0x5f, 0xa6, 0x3d, 
0x50, 0xce, 0x66, 0xbd, 0x37, 0x9c, 0x6d, 0x3d, 0x74, 0x44, 0xcb, 0x3c, 
0x72, 0x23, 0x32, 0xbd, 0xac, 0xbe, 0xf8, 0x3d, 0x00, 0xe0, 0xcd, 0x3c, 
0x0d, 0x20, 0x17, 0xbd, 0x51, 0x7a, 0xb2, 0xbc, 0x49, 0x64, 0xe9, 0xbc, 
0xcf, 0x99, 0x48, 0xbd, 0x9c, 0x40, 0xb8, 0x3d, 0xe1, 0x10, 0x1e, 0xbd, 
0x29, 0x49, 0xa5, 0xbd, 0x9a, 0xd6, 0x51, 0x3d, 0xbc, 0x79, 0xca, 0x3c, 
0x2d, 0xbf, 0x07, 0xbd, 0x9b, 0x5a, 0xf2, 0x3d, 0x5e, 0x95, 0x81, 0x3d, 
0xda, 0x66, 0x82, 0xbd, 0x98, 0x7a, 0xcc, 0xb9, 0xd8, 0x75, 0x88, 0xbc, 
0x83, 0x7d, 0x4f, 0xbd, 0x16, 0xd5, 0x12, 0x3e, 0xb2, 0x70, 0xb6, 0xbb, 
0xde, 0x3b, 0xd4, 0xbd, 0x53, 0xd9, 0xb3, 0xbc, 0xd1, 0x1d, 0xed, 0xbc, 
0x2f, 0xa6, 0x01, 0x3c, 0xb0, 0x3d, 0xf2, 0x3d, 0xd8, 0x68, 0x2e, 0x3d, 
0xf2, 0x34, 0xa3, 0xbc, 0x44, 0xac, 0x0e, 0x3d, 0xc0, 0xc8, 0x15, 0x3c, 
0x96, 0xf4, 0x97, 0xbc, 0xc7, 0x61, 0xab, 0x3d, 0x8e, 0xba, 0xa1, 0x3d, 
0xb4, 0x8d, 0x47, 0xbb, 0xa8, 0xa2, 0x44, 0x3b, 0x26, 0x2f, 0x21, 0xbd, 
0x25, 0x55, 0xe5, 0x3c, 0x8e, 0xf4, 0x17, 0x3d, 0x51, 0xed, 0x96, 0xbc, 
0x44, 0xc3, 0x61, 0xbd, 0x5b, 0x70, 0x50, 0x3d, 0xe6, 0xa5, 0xf9, 0xbc, 
0x5a, 0xca, 0x95, 0xbc, 0x15, 0xfe, 0x4d, 0x3d, 0x1d, 0xf3, 0x62, 0x3d, 
0x1b, 0x86, 0x68, 0x3d, 0x3a, 0xa6, 0xa3, 0x3c, 0xc0, 0xb3, 0x9f, 0x3b, 
0xc6, 0xfd, 0x45, 0x3c, 0x3b, 0xdb, 0x53, 0x3d, 0x59, 0xf7, 0xad, 0x3d, 
0x8a, 0x00, 0x62, 0xbd, 0xe8, 0x46, 0x77, 0xbb, 0x8c, 0x24, 0x1f, 0x3d, 
0x43, 0xbc, 0x11, 0xbd, 0x50, 0x1a, 0xa5, 0x3d, 0x08, 0xbc, 0xed, 0xbb, 
0x0f, 0x61, 0xcc, 0xbd, 0xb7, 0xa1, 0x17, 0xbc, 0x30, 0x18, 0x10, 0x3d, 
0xaf, 0x64, 0x2c, 0x3d, 0xbb, 0x0f, 0x69, 0x3d, 0x7a, 0x60, 0x40, 0x3c, 
0x48, 0x2f, 0x0c, 0x3d, 0x49, 0xb8, 0x62, 0xbc, 0xd4, 0xcf, 0x22, 0xbd, 
0xb7, 0xb8, 0xa8, 0xbc, 0x8f, 0xcd, 0xed, 0x3d, 0x8f, 0x92, 0xf1, 0x3d, 
0xc6, 0x85, 0xbe, 0x3d, 0x6a, 0xd1, 0xb9, 0x3d, 0x70, 0x1f, 0x4e, 0x3b, 
0xdc, 0x62, 0xf3, 0x3c, 0x3e, 0x06, 0x80, 0x3d, 0xcb, 0xa9, 0xeb, 0x3d, 
0x80, 0xf9, 0x18, 0x3d, 0xd6, 0x9e, 0xab, 0x3c, 0xec, 0x50, 0x95, 0x3c, 
0x93, 0xea, 0xab, 0x3c, 0xae, 0x10, 0x92, 0x3d, 0x15, 0xd0, 0xbe, 0xbc, 
0x0c, 0x1d, 0x10, 0xbe, 0xcc, 0x12, 0xa1, 0xbc, 0x78, 0x6e, 0xe4, 0xbb, 
0x09, 0x0f, 0x49, 0x3d, 0xe2, 0x68, 0xec, 0x3d, 0xc1, 0x19, 0xab, 0x3d, 
0x3e, 0x55, 0x60, 0xbd, 0xdd, 0x28, 0x84, 0x3d, 0x4c, 0xc9, 0xba, 0x3c, 
0x79, 0x9b, 0x31, 0xbb, 0x09, 0xa2, 0x4a, 0x3d, 0x21, 0xe2, 0x52, 0x3d, 
0x7c, 0x9b, 0x43, 0x3d, 0xaf, 0xef, 0x18, 0x3d, 0xa0, 0x2f, 0x9d, 0x3a, 
0x4e, 0x16, 0x50, 0xbd, 0x25, 0x00, 0xb6, 0x3d, 0x4f, 0xa8, 0x0f, 0x3e, 
0x11, 0xec, 0xb5, 0x3d, 0xa7, 0x85, 0xc2, 0x3b, 0x38, 0xb4, 0x5c, 0x3c, 
0x54, 0x7a, 0x6b, 0xbd, 0x16, 0x78, 0xc8, 0x3d, 0x9c, 0x02, 0xce, 0x3c, 
0x84, 0xbd, 0x69, 0xbc, 0x85, 0x4b, 0xd4, 0x3c, 0xc2, 0xf9, 0x0b, 0x3d, 
0xe0, 0x29, 0x44, 0xbc, 0x3d, 0xc0, 0x07, 0x3e, 0xac, 0x06, 0x25, 0x3e, 
0x55, 0x6a, 0x84, 0x3d, 0xe7, 0x79, 0xa1, 0x3d, 0x40, 0x8c, 0xed, 0x3b, 
0x85, 0x0f, 0xd8, 0x3c, 0x35, 0x14, 0x13, 0x3e, 0x6b, 0xb5, 0x90, 0x3d, 
0x6c, 0x8f, 0xbf, 0xbd, 0x10, 0x67, 0xed, 0x3c, 0x96, 0x27, 0x39, 0x3d, 
0x70, 0x7e, 0xad, 0x39, 0x59, 0x05, 0x74, 0x3d, 0x43, 0xe3, 0x8e, 0xbd, 
0x45, 0x7a, 0xc7, 0xbd, 0xcc, 0x1a, 0x42, 0xbd, 0xe8, 0x03, 0xef, 0xbb, 
0xb1, 0x41, 0x71, 0xbc, 0xdb, 0xd8, 0x38, 0x3d, 0x43, 0x34, 0x07, 0x3d, 
0xa5, 0x1f, 0x11, 0xbb, 0xda, 0x98, 0x55, 0x3d, 0x1c, 0x7e, 0xbf, 0x3c, 
0xb1, 0x7d, 0x16, 0x3d, 0x88, 0x6e, 0x65, 0x3d, 0xd2, 0x81, 0x48, 0x3e, 
0xe5, 0x53, 0x1c, 0x3d, 0xc0, 0xdf, 0x27, 0x3a, 0x29, 0xae, 0x07, 0xbd, 
0x7d, 0x4d, 0xfb, 0xbc, 0xa8, 0xbd, 0xcc, 0x3d, 0xba, 0xee, 0x1a, 0x3d, 
0x3b, 0xb9, 0x9d, 0xbd, 0x99, 0x30, 0xa4, 0xbb, 0xb1, 0xb5, 0x09, 0xbd, 
0xa6, 0x85, 0x6a, 0xbc, 0x42, 0x19, 0x72, 0x3d, 0x66, 0x28, 0xb1, 0xbd, 
0x8e, 0x05, 0x74, 0xbe, 0xbc, 0x95, 0x86, 0xbc, 0x8c, 0x37, 0x02, 0xbd, 
0x5b, 0x6d, 0x0b, 0xbd, 0x00, 0x67, 0x7a, 0xbb, 0x18, 0xa5, 0x9e, 0x3d, 
0x29, 0x34, 0x30, 0x3d, 0xd8, 0x8b, 0xc3, 0xbb, 0xf4, 0xe1, 0x24, 0x3c, 
0x8e, 0x77, 0xb0, 0xbc, 0x13, 0x32, 0xb2, 0x3d, 0x8e, 0x45, 0xec, 0x3d, 
0xe7, 0x9c, 0xf6, 0xbc, 0x79, 0x68, 0x88, 0x3d, 0x83, 0xa8, 0x3d, 0xbd, 
0x4e, 0x9e, 0xb0, 0xbb, 0x2d, 0xcf, 0x36, 0x3e, 0xb3, 0x6e, 0x80, 0x3d, 
0x99, 0x4e, 0xf6, 0xbd, 0x18, 0xf9, 0xa4, 0x3c, 0xed, 0x3b, 0x43, 0xbd, 
0x34, 0xb8, 0xe2, 0xbc, 0x90, 0x2d, 0x40, 0x3c, 0xdc, 0xc8, 0xd3, 0xbd, 
0x24, 0xad, 0xae, 0xbd, 0xd4, 0xa1, 0x54, 0x3b, 0x0c, 0x19, 0x03, 0xbd, 
0x77, 0xcc, 0xf3, 0x3c, 0x57, 0x8c, 0x75, 0x3c, 0xde, 0x3a, 0xbc, 0x3d, 
0xd9, 0x49, 0xad, 0xbd, 0xbc, 0x72, 0x82, 0x3d, 0x40, 0x42, 0x69, 0x3a, 
0x9b, 0x22, 0xa1, 0x3b, 0x53, 0x0b, 0xc3, 0x3d, 0xd4, 0xa9, 0x54, 0xbc, 
0x4f, 0xae, 0x66, 0xbd, 0x39, 0x33, 0x75, 0x3d, 0xf8, 0xb2, 0xf3, 0xbc, 
0x9d, 0x3e, 0x1e, 0x3c, 0xd1, 0x86, 0x11, 0x3e, 0xd0, 0xa8, 0xda, 0x3c, 
0xa9, 0x6e, 0x8c, 0xbd, 0x0a, 0x86, 0x1b, 0x3d, 0x40, 0x11, 0x7f, 0xba, 
0xfa, 0xff, 0x21, 0x3d, 0xa2, 0xa7, 0x06, 0x3d, 0xe6, 0xdd, 0x2a, 0xbe, 
0xee, 0xcd, 0xd7, 0xbd, 0x12, 0xd2, 0x12, 0x3d, 0xdd, 0x35, 0xcd, 0xbc, 
0x05, 0x22, 0x28, 0xbc, 0xfc, 0x78, 0xee, 0x3c, 0x01, 0xff, 0xce, 0xbd, 
0xc1, 0xba, 0x13, 0xbe, 0x01, 0xe2, 0xf2, 0xbc, 0x98, 0xdb, 0x86, 0x3b, 
0xa4, 0x4d, 0xfc, 0xbc, 0xa5, 0xdc, 0x07, 0x3e, 0x2a, 0x7a, 0x64, 0x3c, 
0xa5, 0x22, 0x0b, 0xbe, 0x06, 0x12, 0x6d, 0x3d, 0x54, 0xd9, 0xea, 0x3c, 
0x8b, 0x1f, 0xe3, 0x3a, 0x29, 0x50, 0xff, 0x3d, 0xbc, 0x38, 0x00, 0xbd, 
0x8a, 0xcf, 0x16, 0xbe, 0x7b, 0xc3, 0x14, 0x3d, 0x68, 0xcb, 0xbe, 0xbb, 
0x8d, 0xd8, 0xe4, 0x3c, 0x62, 0x75, 0x73, 0xbc, 0xa2, 0xe9, 0x15, 0xbe, 
0x07, 0xae, 0xa3, 0xbd, 0x98, 0xaa, 0x74, 0x3b, 0xe8, 0xd8, 0x4c, 0xbd, 
0x05, 0x84, 0x8e, 0xbc, 0x39, 0x90, 0x4f, 0x3c, 0x0c, 0xfd, 0x99, 0x3c, 
0xc5, 0xfc, 0xdc, 0xbc, 0xff, 0x3a, 0xe6, 0xbb, 0xe0, 0x68, 0xf1, 0x3b, 
0xe8, 0x04, 0xf1, 0x3c, 0xa2, 0xb4, 0xd1, 0x3d, 0xb3, 0xbd, 0x8f, 0x3d, 
0x8e, 0xf4, 0x47, 0xbd, 0x9f, 0xf1, 0x15, 0x3b, 0x72, 0xa5, 0x41, 0xbd, 
0x15, 0xa5, 0x0b, 0x3c, 0x3c, 0xb1, 0xa7, 0x3d, 0xae, 0x79, 0x16, 0xbd, 
0x0f, 0xdf, 0x98, 0xbd, 0xce, 0x6d, 0xbc, 0xbc, 0x42, 0x78, 0x2d, 0x3d, 
0x85, 0x25, 0xa6, 0xbc, 0x47, 0xe9, 0x9f, 0x3d, 0x3e, 0xee, 0xae, 0x3c, 
0x0e, 0xfb, 0x05, 0xbe, 0xed, 0x08, 0x35, 0x3d, 0x60, 0xd5, 0x93, 0xbb, 
0x50, 0xe4, 0xba, 0x3c, 0x20, 0xc1, 0xe6, 0x3d, 0x69, 0x07, 0x84, 0x3d, 
0x6a, 0xc6, 0x92, 0xbd, 0x2e, 0x62, 0x92, 0x3c, 0xb8, 0x52, 0x45, 0xbc, 
0xd2, 0xe5, 0x45, 0xbd, 0xa7, 0xf2, 0x20, 0x3e, 0x2a, 0x36, 0xc5, 0x3c, 
0x5d, 0x10, 0x30, 0x3d, 0x46, 0xd5, 0x98, 0x3c, 0xc0, 0xf2, 0x59, 0x3b, 
0x86, 0xf5, 0xde, 0x3c, 0xa1, 0xa4, 0xfa, 0x3d, 0x0d, 0x52, 0x96, 0x3d, 
0x18, 0xa7, 0xad, 0xbd, 0xcb, 0x20, 0xa8, 0xbb, 0xb0, 0xa5, 0xd3, 0x3c, 
0xe0, 0xc7, 0xde, 0xbc, 0x85, 0xc1, 0xea, 0x3d, 0xe2, 0xa0, 0x0d, 0xbd, 
0x09, 0x19, 0x9b, 0xbd, 0x14, 0xf1, 0x0e, 0x3d, 0x3b, 0x0f, 0x2b, 0xbd, 
0xdd, 0x46, 0x16, 0x3d, 0x2b, 0x40, 0x3c, 0x3d, 0x57, 0xd5, 0x31, 0xbe, 
0x78, 0xda, 0x97, 0xbd, 0x5d, 0x80, 0x91, 0x3c, 0x6c, 0x0d, 0xe0, 0x3c, 
0x63, 0xd0, 0x10, 0xbd, 0x76, 0x52, 0x90, 0x3d, 0x41, 0xf6, 0x97, 0x3d, 
0xd6, 0x21, 0x11, 0x3b, 0x91, 0xfe, 0x4f, 0xbc, 0xd0, 0xd5, 0x16, 0xbd, 
0xf9, 0x22, 0x36, 0xbd, 0xe1, 0x51, 0xf1, 0x3d, 0x59, 0x74, 0x3d, 0x3c, 
0xb5, 0xb3, 0x31, 0xbe, 0x7e, 0x53, 0x4b, 0x3c, 0x84, 0x30, 0x2f, 0xbc, 
0x5e, 0x77, 0x10, 0x3c, 0xf3, 0x6d, 0xf5, 0x3d, 0x5c, 0xab, 0x2d, 0x3c, 
0x3e, 0x1e, 0x34, 0xbe, 0xf3, 0x27, 0x4d, 0x3d, 0xa8, 0xb9, 0x84, 0x3b, 
0xe6, 0x53, 0xdd, 0x3b, 0x5b, 0x4e, 0xc2, 0x3d, 0x91, 0x84, 0xab, 0xba, 
0x19, 0xcd, 0xf9, 0xbc, 0x08, 0x4e, 0x77, 0x3d, 0x78, 0x49, 0xb6, 0x3b, 
0x24, 0x1e, 0x12, 0xbc, 0x58, 0x4e, 0x2c, 0x3e, 0x83, 0x1b, 0x87, 0x3d, 
0x1a, 0xbf, 0x53, 0xbd, 0x4c, 0x84, 0x26, 0x3d, 0xc5, 0x49, 0x18, 0xbd, 
0xc9, 0x17, 0x1f, 0xbd, 0x7d, 0xe6, 0xf3, 0x3d, 0x62, 0xe6, 0x4f, 0xbd, 
0x01, 0x8f, 0xaf, 0xbd, 0x8b, 0x78, 0x39, 0x3b, 0x10, 0xf1, 0x7f, 0xbb, 
0x92, 0x06, 0x16, 0x3c, 0x04, 0x66, 0x22, 0x3d, 0x07, 0xfd, 0x60, 0x3d, 
0xa6, 0x3b, 0xbb, 0xbd, 0x42, 0x56, 0xa6, 0xbb, 0x2c, 0xec, 0x4c, 0x3d, 
0x90, 0x89, 0x4a, 0xbd, 0x37, 0xd1, 0x52, 0x3d, 0x55, 0x9f, 0x17, 0xbd, 
0x15, 0xbc, 0x46, 0xbe, 0x58, 0x76, 0x20, 0xbc, 0x80, 0xe0, 0x48, 0xbc, 
0x55, 0x96, 0xc0, 0xbc, 0xe4, 0x87, 0xcb, 0x3b, 0x48, 0x12, 0x04, 0x3d, 
0xb6, 0x64, 0x5d, 0xbd, 0x84, 0xb5, 0x51, 0x3d, 0x82, 0x80, 0x29, 0x3d, 
0xd3, 0x3f, 0xc6, 0xbb, 0xbd, 0x96, 0x10, 0x3e, 0xb6, 0xba, 0xd9, 0x3d, 
0x34, 0x13, 0x55, 0x3d, 0x77, 0x94, 0x9b, 0x3c, 0xa0, 0x1f, 0x0d, 0x3c, 
0x99, 0xec, 0x1e, 0xbc, 0x1e, 0x0d, 0x20, 0x3e, 0x35, 0x93, 0x6c, 0x3d, 
0xa0, 0x4b, 0x2b, 0xbd, 0x10, 0x7d, 0xc2, 0xbb, 0x20, 0xb5, 0x04, 0x3d, 
0x1f, 0x1c, 0x1d, 0xbd, 0xb7, 0x7f, 0x04, 0x3e, 0xa3, 0x50, 0x06, 0xbd, 
0xc4, 0xb8, 0xaa, 0xbd, 0x54, 0xd0, 0x55, 0x3d, 0x1f, 0xa9, 0xe5, 0xbc, 
0xe7, 0x39, 0x58, 0x3c, 0xbe, 0x49, 0xe3, 0x3d, 0x8e, 0x56, 0x55, 0xbd, 
0x88, 0x20, 0x06, 0xbe, 0xc9, 0xcf, 0xea, 0xbc, 0x1c, 0x1a, 0x37, 0x3c, 
0x55, 0x36, 0xa1, 0x3c, 0xbc, 0x11, 0xbf, 0x3d, 0x18, 0xf3, 0x11, 0xbd, 
0xfa, 0x1e, 0xc2, 0xbc, 0xb2, 0x30, 0x59, 0xbb, 0x5c, 0x3c, 0x10, 0x3c, 
0x2e, 0x7d, 0x47, 0xbb, 0xf2, 0x72, 0x6f, 0x3d, 0x41, 0x47, 0x7d, 0x3d, 
0xde, 0x50, 0xb4, 0x3c, 0x57, 0xd8, 0xff, 0x3c, 0x20, 0xa1, 0xf8, 0x3c, 
0x95, 0xd7, 0x02, 0xbd, 0xe5, 0xbd, 0xa9, 0x3d, 0xda, 0xe1, 0xe5, 0x3d, 
0x02, 0x20, 0x92, 0xbd, 0xa0, 0x57, 0x62, 0x3d, 0x4c, 0xc7, 0x2e, 0xbd, 
0xb1, 0x12, 0x42, 0x3c, 0xe0, 0xa2, 0x90, 0x3d, 0x2a, 0x23, 0xd4, 0x3d, 
0xc1, 0x19, 0x72, 0x3d, 0x39, 0x30, 0xa6, 0x3d, 0x54, 0x09, 0x65, 0xbc, 
0xc2, 0x97, 0x00, 0x3d, 0x13, 0xf7, 0x1c, 0x3e, 0x94, 0x5d, 0x2d, 0x3e, 
0x50, 0xe7, 0xf4, 0x3c, 0x9b, 0x8b, 0xc7, 0x3c, 0x64, 0x56, 0x47, 0x3d, 
0x8d, 0x44, 0xe9, 0xbc, 0xd2, 0x7f, 0x23, 0x3e, 0x3d, 0xa1, 0xf0, 0x3c, 
0x5b, 0xed, 0x1c, 0xbb, 0xf7, 0xa4, 0x59, 0x3d, 0x9c, 0xaa, 0x29, 0x3c, 
0x00, 0x4b, 0xbb, 0x3b, 0x0e, 0x8f, 0x94, 0x3d, 0x7f, 0x89, 0x30, 0x3e, 
0x52, 0x59, 0x64, 0x3c, 0x04, 0xcb, 0x4e, 0x3c, 0xdc, 0x04, 0x01, 0xbd, 
0x6a, 0x82, 0x04, 0x3d, 0xc7, 0x93, 0x1b, 0x3e, 0x32, 0x73, 0xd6, 0x3d, 
0xc1, 0xfc, 0x18, 0x3c, 0xb7, 0xd9, 0xcb, 0x3c, 0x44, 0xf4, 0x97, 0xbc, 
0xfc, 0x15, 0x18, 0x3c, 0xfe, 0x5b, 0xc1, 0x3d, 0x1e, 0x77, 0xb0, 0x3c, 
0x74, 0x47, 0xb0, 0xbd, 0x14, 0x2d, 0x98, 0x3c, 0xeb, 0xb0, 0xa8, 0xbc, 
0x3b, 0xe6, 0xcc, 0x3c, 0x95, 0x09, 0x90, 0x3b, 0x81, 0x01, 0xea, 0x3c, 
0xa6, 0x4c, 0x90, 0xbc, 0xd6, 0x5e, 0x15, 0x3d, 0x38, 0x03, 0xc2, 0xbb, 
0x19, 0x30, 0x31, 0x3d, 0x36, 0x49, 0xe3, 0x3d, 0x8c, 0x96, 0xb0, 0x3d, 
0x28, 0x96, 0x9e, 0xbb, 0xee, 0x3e, 0x61, 0x3d, 0xc0, 0xe5, 0x00, 0x3a, 
0xe0, 0xee, 0x0b, 0x3d, 0x35, 0x78, 0x23, 0x3e, 0x14, 0xaa, 0x45, 0x3e, 
0xa7, 0x08, 0x15, 0x3d, 0xdd, 0xab, 0x71, 0x3d, 0x54, 0x77, 0x15, 0x3d, 
0xd8, 0x14, 0xfe, 0xbc, 0x6a, 0xad, 0x36, 0x3e, 0x1d, 0x26, 0x05, 0x3e, 
0x91, 0x3c, 0x48, 0xbd, 0xb6, 0x7f, 0xa3, 0xbc, 0x98, 0xdd, 0x0f, 0xbd, 
0xd9, 0x0e, 0xf4, 0x3a, 0x21, 0x47, 0xb4, 0x3d, 0xa6, 0x57, 0xd4, 0x3d, 
0x42, 0x93, 0x48, 0x3a, 0xd1, 0x3a, 0x7c, 0x3d, 0x02, 0x99, 0x02, 0xbd, 
0x56, 0x88, 0x5a, 0x3d, 0x4d, 0x89, 0xa9, 0x3d, 0xc2, 0xfc, 0xff, 0xff, 
0x04, 0x00, 0x00, 0x00, 0x04, 0x00, 0x00, 0x00, 0xfd, 0xff, 0xff, 0xff, 
0xd2, 0xfc, 0xff, 0xff, 0x04, 0x00, 0x00, 0x00, 0x08, 0x00, 0x00, 0x00, 
0xff, 0xff, 0xff, 0xff, 0x4e, 0x09, 0x00, 0x00, 0xe6, 0xfc, 0xff, 0xff, 
0x04, 0x00, 0x00, 0x00, 0x04, 0x00, 0x00, 0x00, 0x8f, 0x01, 0x00, 0x00, 
0xf6, 0xfc, 0xff, 0xff, 0x04, 0x00, 0x00, 0x00, 0x04, 0x00, 0x00, 0x00, 
0x03, 0x00, 0x00, 0x00, 0x06, 0xfd, 0xff, 0xff, 0x04, 0x00, 0x00, 0x00, 
0x04, 0x00, 0x00, 0x00, 0x00, 0x00, 0x00, 0x00, 0x16, 0xfd, 0xff, 0xff, 
0x04, 0x00, 0x00, 0x00, 0x04, 0x00, 0x00, 0x00, 0x01, 0x00, 0x00, 0x00, 
0x26, 0xfd, 0xff, 0xff, 0x04, 0x00, 0x00, 0x00, 0x04, 0x00, 0x00, 0x00, 
0x54, 0x52, 0xac, 0xbc, 0x36, 0xfd, 0xff, 0xff, 0x04, 0x00, 0x00, 0x00, 
0xd8, 0x00, 0x00, 0x00, 0xec, 0xe6, 0x22, 0x3e, 0x9a, 0x53, 0x55, 0xbc, 
0xc2, 0x47, 0x07, 0x3f, 0x81, 0x2b, 0x4c, 0xbe, 0x26, 0x47, 0xb8, 0x3e, 
0xc1, 0xe5, 0xb0, 0xbe, 0xb9, 0xef, 0xb5, 0x3e, 0xaf, 0xac, 0xcd, 0xbd, 
0xc3, 0x05, 0x4d, 0xbe, 0x2d, 0x2c, 0x23, 0x3f, 0x5c, 0xdb, 0x50, 0xbf, 
0x0f, 0x46, 0x78, 0x3e, 0x9f, 0xbf, 0xaa, 0x3e, 0x47, 0xb8, 0xd2, 0x3e, 
0x25, 0xa4, 0x89, 0x3d, 0xfd, 0x04, 0x20, 0x3f, 0x50, 0xec, 0x2c, 0x3f, 
0xea, 0xf8, 0xab, 0xbe, 0xc3, 0xa1, 0x9c, 0x3e, 0x45, 0x1a, 0x0c, 0x3e, 
0x3c, 0xd9, 0xd1, 0x3e, 0x5d, 0x1a, 0x3d, 0x3e, 0x1b, 0xb0, 0x78, 0xbe, 
0xef, 0x08, 0x6b, 0x3d, 0xb3, 0x0e, 0x04, 0xbf, 0x7e, 0x37, 0x06, 0xbd, 
0x42, 0xec, 0xef, 0xbe, 0x7d, 0x30, 0x72, 0xbe, 0x97, 0x3c, 0xf3, 0x3d, 
0x41, 0xfe, 0x50, 0xbe, 0x5d, 0xec, 0x0d, 0xbf, 0x10, 0xf8, 0xaf, 0xbd, 
0xd9, 0x68, 0xb6, 0xbe, 0x0b, 0x5c, 0x17, 0xbf, 0x13, 0xa0, 0xde, 0x3e, 
0x61, 0xb5, 0x65, 0xbe, 0xef, 0xaf, 0xb2, 0x3e, 0x4b, 0xa8, 0xd8, 0xbe, 
0x75, 0x64, 0xae, 0xbe, 0xb9, 0x0a, 0x42, 0x3c, 0x2b, 0xa7, 0x90, 0xbc, 
0x3b, 0x46, 0xca, 0x3d, 0x51, 0x2f, 0x8f, 0x3c, 0x7b, 0xd7, 0xf6, 0x3e, 
0xfa, 0x22, 0xb2, 0x3e, 0x55, 0x35, 0x06, 0xbf, 0x67, 0xb6, 0xbc, 0xbe, 
0x9f, 0xc2, 0x77, 0x3e, 0x69, 0x59, 0x8f, 0xbe, 0xac, 0x42, 0xd8, 0xbe, 
0x57, 0x2c, 0x98, 0x3d, 0x61, 0xf5, 0x27, 0xbe, 0x0e, 0xdf, 0x39, 0xbe, 
0xc0, 0xcd, 0x9c, 0xbe, 0x1a, 0xfe, 0xff, 0xff, 0x04, 0x00, 0x00, 0x00, 
0x18, 0x00, 0x00, 0x00, 0x3a, 0x92, 0xc6, 0x3d, 0x09, 0xb8, 0x31, 0x3e, 
0xa5, 0xb4, 0xef, 0xbc, 0x00, 0xc5, 0x40, 0x3e, 0x3e, 0xf8, 0x9d, 0xbc, 
0x73, 0xf0, 0x77, 0xbc, 0x4c, 0xf5, 0xff, 0xff, 0x50, 0xf5, 0xff, 0xff, 
0x0f, 0x00, 0x00, 0x00, 0x4d, 0x4c, 0x49, 0x52, 0x20, 0x43, 0x6f, 0x6e, 
0x76, 0x65, 0x72, 0x74, 0x65, 0x64, 0x2e, 0x00, 0x01, 0x00, 0x00, 0x00, 
0x14, 0x00, 0x00, 0x00, 0x00, 0x00, 0x0e, 0x00, 0x18, 0x00, 0x14, 0x00, 
0x10, 0x00, 0x0c, 0x00, 0x08, 0x00, 0x04, 0x00, 0x0e, 0x00, 0x00, 0x00, 
0x14, 0x00, 0x00, 0x00, 0x1c, 0x00, 0x00, 0x00, 0x48, 0x02, 0x00, 0x00, 
0x4c, 0x02, 0x00, 0x00, 0x50, 0x02, 0x00, 0x00, 0x04, 0x00, 0x00, 0x00, 
0x6d, 0x61, 0x69, 0x6e, 0x00, 0x00, 0x00, 0x00, 0x09, 0x00, 0x00, 0x00, 
0xf8, 0x01, 0x00, 0x00, 0x98, 0x01, 0x00, 0x00, 0x44, 0x01, 0x00, 0x00, 
0x1c, 0x01, 0x00, 0x00, 0xdc, 0x00, 0x00, 0x00, 0x88, 0x00, 0x00, 0x00, 
0x60, 0x00, 0x00, 0x00, 0x28, 0x00, 0x00, 0x00, 0x04, 0x00, 0x00, 0x00, 
0x06, 0xff, 0xff, 0xff, 0x0c, 0x00, 0x00, 0x00, 0x10, 0x00, 0x00, 0x00, 
0x07, 0x00, 0x00, 0x00, 0x01, 0x00, 0x00, 0x00, 0x13, 0x00, 0x00, 0x00, 
0x01, 0x00, 0x00, 0x00, 0x12, 0x00, 0x00, 0x00, 0xb6, 0xfe, 0xff, 0xff, 
0x14, 0x00, 0x00, 0x00, 0x00, 0x00, 0x00, 0x08, 0x10, 0x00, 0x00, 0x00, 
0x14, 0x00, 0x00, 0x00, 0x06, 0x00, 0x00, 0x00, 0x04, 0xf6, 0xff, 0xff, 
0x01, 0x00, 0x00, 0x00, 0x12, 0x00, 0x00, 0x00, 0x03, 0x00, 0x00, 0x00, 
0x11, 0x00, 0x00, 0x00, 0x0a, 0x00, 0x00, 0x00, 0x03, 0x00, 0x00, 0x00, 
0x5a, 0xff, 0xff, 0xff, 0x0c, 0x00, 0x00, 0x00, 0x10, 0x00, 0x00, 0x00, 
0x03, 0x00, 0x00, 0x00, 0x01, 0x00, 0x00, 0x00, 0x11, 0x00, 0x00, 0x00, 
0x02, 0x00, 0x00, 0x00, 0x10, 0x00, 0x00, 0x00, 0x08, 0x00, 0x00, 0x00, 
0x0e, 0xff, 0xff, 0xff, 0x20, 0x00, 0x00, 0x00, 0x00, 0x00, 0x00, 0x01, 
0x2c, 0x00, 0x00, 0x00, 0x30, 0x00, 0x00, 0x00, 0x05, 0x00, 0x00, 0x00, 
0x0c, 0x00, 0x14, 0x00, 0x13, 0x00, 0x0c, 0x00, 0x08, 0x00, 0x07, 0x00, 
0x0c, 0x00, 0x00, 0x00, 0x00, 0x00, 0x00, 0x01, 0x01, 0x00, 0x00, 0x00, 
0x01, 0x00, 0x00, 0x00, 0x00, 0x00, 0x00, 0x01, 0x01, 0x00, 0x00, 0x00, 
0x10, 0x00, 0x00, 0x00, 0x03, 0x00, 0x00, 0x00, 0x0f, 0x00, 0x00, 0x00, 
0x02, 0x00, 0x00, 0x00, 0x01, 0x00, 0x00, 0x00, 0x5e, 0xff, 0xff, 0xff, 
0x14, 0x00, 0x00, 0x00, 0x00, 0x00, 0x00, 0x34, 0x10, 0x00, 0x00, 0x00, 
0x14, 0x00, 0x00, 0x00, 0x04, 0x00, 0x00, 0x00, 0xac, 0xf6, 0xff, 0xff, 
0x01, 0x00, 0x00, 0x00, 0x0f, 0x00, 0x00, 0x00, 0x02, 0x00, 0x00, 0x00, 
0x0e, 0x00, 0x00, 0x00, 0x09, 0x00, 0x00, 0x00, 0x00, 0x00, 0x0a, 0x00, 
0x10, 0x00, 0x0c, 0x00, 0x08, 0x00, 0x04, 0x00, 0x0a, 0x00, 0x00, 0x00, 
0x0c, 0x00, 0x00, 0x00, 0x10, 0x00, 0x00, 0x00, 0x03, 0x00, 0x00, 0x00, 
0x01, 0x00, 0x00, 0x00, 0x0e, 0x00, 0x00, 0x00, 0x02, 0x00, 0x00, 0x00, 
0x00, 0x00, 0x00, 0x00, 0x0d, 0x00, 0x00, 0x00, 0xbe, 0xff, 0xff, 0xff, 
0x1c, 0x00, 0x00, 0x00, 0x00, 0x00, 0x00, 0x3b, 0x1c, 0x00, 0x00, 0x00, 
0x20, 0x00, 0x00, 0x00, 0x02, 0x00, 0x00, 0x00, 0x00, 0x00, 0x06, 0x00, 
0x08, 0x00, 0x04, 0x00, 0x06, 0x00, 0x00, 0x00, 0x03, 0x00, 0x00, 0x00, 
0x01, 0x00, 0x00, 0x00, 0x0d, 0x00, 0x00, 0x00, 0x03, 0x00, 0x00, 0x00, 
0x0c, 0x00, 0x00, 0x00, 0x07, 0x00, 0x00, 0x00, 0x06, 0x00, 0x00, 0x00, 
0x00, 0x00, 0x0e, 0x00, 0x1a, 0x00, 0x14, 0x00, 0x10, 0x00, 0x0c, 0x00, 
0x0b, 0x00, 0x04, 0x00, 0x0e, 0x00, 0x00, 0x00, 0x24, 0x00, 0x00, 0x00, 
0x00, 0x00, 0x00, 0x20, 0x24, 0x00, 0x00, 0x00, 0x28, 0x00, 0x00, 0x00, 
0x01, 0x00, 0x00, 0x00, 0x00, 0x00, 0x0e, 0x00, 0x08, 0x00, 0x00, 0x00, 
0x00, 0x00, 0x00, 0x00, 0x00, 0x00, 0x04, 0x00, 0x0e, 0x00, 0x00, 0x00, 
0x01, 0x00, 0x00, 0x00, 0x01, 0x00, 0x00, 0x00, 0x0c, 0x00, 0x00, 0x00, 
0x04, 0x00, 0x00, 0x00, 0x0b, 0x00, 0x00, 0x00, 0x05, 0x00, 0x00, 0x00, 
0x04, 0x00, 0x00, 0x00, 0x04, 0x00, 0x00, 0x00, 0x00, 0x00, 0x0e, 0x00, 
0x16, 0x00, 0x00, 0x00, 0x10, 0x00, 0x0c, 0x00, 0x0b, 0x00, 0x04, 0x00, 
0x0e, 0x00, 0x00, 0x00, 0x18, 0x00, 0x00, 0x00, 0x00, 0x00, 0x00, 0x37, 
0x18, 0x00, 0x00, 0x00, 0x1c, 0x00, 0x00, 0x00, 0x00, 0x00, 0x06, 0x00, 
0x08, 0x00, 0x07, 0x00, 0x06, 0x00, 0x00, 0x00, 0x00, 0x00, 0x00, 0x02, 
0x01, 0x00, 0x00, 0x00, 0x0b, 0x00, 0x00, 0x00, 0x01, 0x00, 0x00, 0x00, 
0x00, 0x00, 0x00, 0x00, 0x01, 0x00, 0x00, 0x00, 0x13, 0x00, 0x00, 0x00, 
0x01, 0x00, 0x00, 0x00, 0x00, 0x00, 0x00, 0x00, 0x14, 0x00, 0x00, 0x00, 
0xf0, 0x07, 0x00, 0x00, 0x7c, 0x07, 0x00, 0x00, 0x0c, 0x07, 0x00, 0x00, 
0xb0, 0x06, 0x00, 0x00, 0x50, 0x06, 0x00, 0x00, 0xd8, 0x05, 0x00, 0x00, 
0x80, 0x05, 0x00, 0x00, 0x28, 0x05, 0x00, 0x00, 0xd8, 0x04, 0x00, 0x00, 
0x7c, 0x04, 0x00, 0x00, 0x2c, 0x04, 0x00, 0x00, 0xdc, 0x03, 0x00, 0x00, 
0x88, 0x03, 0x00, 0x00, 0x30, 0x03, 0x00, 0x00, 0xc4, 0x02, 0x00, 0x00, 
0x48, 0x02, 0x00, 0x00, 0x44, 0x01, 0x00, 0x00, 0xe0, 0x00, 0x00, 0x00, 
0x60, 0x00, 0x00, 0x00, 0x04, 0x00, 0x00, 0x00, 0x76, 0xf8, 0xff, 0xff, 
0x00, 0x00, 0x00, 0x01, 0x14, 0x00, 0x00, 0x00, 0x1c, 0x00, 0x00, 0x00, 
0x1c, 0x00, 0x00, 0x00, 0x14, 0x00, 0x00, 0x00, 0x34, 0x00, 0x00, 0x00, 
0x02, 0x00, 0x00, 0x00, 0xff, 0xff, 0xff, 0xff, 0x01, 0x00, 0x00, 0x00, 
0x60, 0xf8, 0xff, 0xff, 0x19, 0x00, 0x00, 0x00, 0x53, 0x74, 0x61, 0x74, 
0x65, 0x66, 0x75, 0x6c, 0x50, 0x61, 0x72, 0x74, 0x69, 0x74, 0x69, 0x6f, 
0x6e, 0x65, 0x64, 0x43, 0x61, 0x6c, 0x6c, 0x3a, 0x30, 0x00, 0x00, 0x00, 
0x02, 0x00, 0x00, 0x00, 0x01, 0x00, 0x00, 0x00, 0x01, 0x00, 0x00, 0x00, 
0xce, 0xf8, 0xff, 0xff, 0x00, 0x00, 0x00, 0x01, 0x14, 0x00, 0x00, 0x00, 
0x1c, 0x00, 0x00, 0x00, 0x1c, 0x00, 0x00, 0x00, 0x13, 0x00, 0x00, 0x00, 
0x58, 0x00, 0x00, 0x00, 0x02, 0x00, 0x00, 0x00, 0xff, 0xff, 0xff, 0xff, 
0x01, 0x00, 0x00, 0x00, 0xb8, 0xf8, 0xff, 0xff, 0x3c, 0x00, 0x00, 0x00, 
0x73, 0x65, 0x71, 0x75, 0x65, 0x6e, 0x74, 0x69, 0x61, 0x6c, 0x5f, 0x36, 
0x34, 0x2f, 0x64, 0x65, 0x6e, 0x73, 0x65, 0x5f, 0x36, 0x34, 0x2f, 0x4d, 
0x61, 0x74, 0x4d, 0x75, 0x6c, 0x3b, 0x73, 0x65, 0x71, 0x75, 0x65, 0x6e, 
0x74, 0x69, 0x61, 0x6c, 0x5f, 0x36, 0x34, 0x2f, 0x64, 0x65, 0x6e, 0x73, 
0x65, 0x5f, 0x36, 0x34, 0x2f, 0x42, 0x69, 0x61, 0x73, 0x41, 0x64, 0x64, 
0x00, 0x00, 0x00, 0x00, 0x02, 0x00, 0x00, 0x00, 0x01, 0x00, 0x00, 0x00, 
0x01, 0x00, 0x00, 0x00, 0x4a, 0xf9, 0xff, 0xff, 0x00, 0x00, 0x00, 0x01, 
0x14, 0x00, 0x00, 0x00, 0x1c, 0x00, 0x00, 0x00, 0x1c, 0x00, 0x00, 0x00, 
0x12, 0x00, 0x00, 0x00, 0x3c, 0x00, 0x00, 0x00, 0x02, 0x00, 0x00, 0x00, 
0xff, 0xff, 0xff, 0xff, 0x4e, 0x09, 0x00, 0x00, 0x34, 0xf9, 0xff, 0xff, 
0x20, 0x00, 0x00, 0x00, 0x73, 0x65, 0x71, 0x75, 0x65, 0x6e, 0x74, 0x69, 
0x61, 0x6c, 0x5f, 0x36, 0x34, 0x2f, 0x66, 0x6c, 0x61, 0x74, 0x74, 0x65, 
0x6e, 0x5f, 0x36, 0x34, 0x2f, 0x52, 0x65, 0x73, 0x68, 0x61, 0x70, 0x65, 
0x00, 0x00, 0x00, 0x00, 0x02, 0x00, 0x00, 0x00, 0x01, 0x00, 0x00, 0x00, 
0x4e, 0x09, 0x00, 0x00, 0xaa, 0xf9, 0xff, 0xff, 0x00, 0x00, 0x00, 0x01, 
0x14, 0x00, 0x00, 0x00, 0x24, 0x00, 0x00, 0x00, 0x24, 0x00, 0x00, 0x00, 
0x11, 0x00, 0x00, 0x00, 0xd4, 0x00, 0x00, 0x00, 0x04, 0x00, 0x00, 0x00, 
0xff, 0xff, 0xff, 0xff, 0x01, 0x00, 0x00, 0x00, 0x8d, 0x01, 0x00, 0x00, 
0x06, 0x00, 0x00, 0x00, 0x9c, 0xf9, 0xff, 0xff, 0xb1, 0x00, 0x00, 0x00, 
0x73, 0x65, 0x71, 0x75, 0x65, 0x6e, 0x74, 0x69, 0x61, 0x6c, 0x5f, 0x36, 
0x34, 0x2f, 0x63, 0x6f, 0x6e, 0x76, 0x31, 0x64, 0x5f, 0x36, 0x34, 0x2f, 
0x52, 0x65, 0x6c, 0x75, 0x3b, 0x73, 0x65, 0x71, 0x75, 0x65, 0x6e, 0x74, 
0x69, 0x61, 0x6c, 0x5f, 0x36, 0x34, 0x2f, 0x63, 0x6f, 0x6e, 0x76, 0x31, 
0x64, 0x5f, 0x36, 0x34, 0x2f, 0x42, 0x69, 0x61, 0x73, 0x41, 0x64, 0x64, 
0x3b, 0x73, 0x65, 0x71, 0x75, 0x65, 0x6e, 0x74, 0x69, 0x61, 0x6c, 0x5f, 
0x36, 0x34, 0x2f, 0x63, 0x6f, 0x6e, 0x76, 0x31, 0x64, 0x5f, 0x36, 0x34, 
0x2f, 0x43, 0x6f, 0x6e, 0x76, 0x31, 0x44, 0x2f, 0x53, 0x71, 0x75, 0x65, 
0x65, 0x7a, 0x65, 0x3b, 0x73, 0x65, 0x71, 0x75, 0x65, 0x6e, 0x74, 0x69, 
0x61, 0x6c, 0x5f, 0x36, 0x34, 0x2f, 0x63, 0x6f, 0x6e, 0x76, 0x31, 0x64, 
0x5f, 0x36, 0x34, 0x2f, 0x42, 0x69, 0x61, 0x73, 0x41, 0x64, 0x64, 0x2f, 
0x52, 0x65, 0x61, 0x64, 0x56, 0x61, 0x72, 0x69, 0x61, 0x62, 0x6c, 0x65, 
0x4f, 0x70, 0x3b, 0x73, 0x65, 0x71, 0x75, 0x65, 0x6e, 0x74, 0x69, 0x61, 
0x6c, 0x5f, 0x36, 0x34, 0x2f, 0x63, 0x6f, 0x6e, 0x76, 0x31, 0x64, 0x5f, 
0x36, 0x34, 0x2f, 0x43, 0x6f, 0x6e, 0x76, 0x31, 0x44, 0x00, 0x00, 0x00, 
0x04, 0x00, 0x00, 0x00, 0x01, 0x00, 0x00, 0x00, 0x01, 0x00, 0x00, 0x00, 
0x8d, 0x01, 0x00, 0x00, 0x06, 0x00, 0x00, 0x00, 0xaa, 0xfa, 0xff, 0xff, 
0x00, 0x00, 0x00, 0x01, 0x14, 0x00, 0x00, 0x00, 0x24, 0x00, 0x00, 0x00, 
0x24, 0x00, 0x00, 0x00, 0x10, 0x00, 0x00, 0x00, 0x4c, 0x00, 0x00, 0x00, 
0x04, 0x00, 0x00, 0x00, 0xff, 0xff, 0xff, 0xff, 0x01, 0x00, 0x00, 0x00, 
0x8f, 0x01, 0x00, 0x00, 0x03, 0x00, 0x00, 0x00, 0x9c, 0xfa, 0xff, 0xff, 
0x29, 0x00, 0x00, 0x00, 0x73, 0x65, 0x71, 0x75, 0x65, 0x6e, 0x74, 0x69, 
0x61, 0x6c, 0x5f, 0x36, 0x34, 0x2f, 0x63, 0x6f, 0x6e, 0x76, 0x31, 0x64, 
0x5f, 0x36, 0x34, 0x2f, 0x43, 0x6f, 0x6e, 0x76, 0x31, 0x44, 0x2f, 0x45, 
0x78, 0x70, 0x61, 0x6e, 0x64, 0x44, 0x69, 0x6d, 0x73, 0x00, 0x00, 0x00, 
0x04, 0x00, 0x00, 0x00, 0x01, 0x00, 0x00, 0x00, 0x01, 0x00, 0x00, 0x00, 
0x8f, 0x01, 0x00, 0x00, 0x03, 0x00, 0x00, 0x00, 0x22, 0xfb, 0xff, 0xff, 
0x00, 0x00, 0x00, 0x01, 0x14, 0x00, 0x00, 0x00, 0x20, 0x00, 0x00, 0x00, 
0x20, 0x00, 0x00, 0x00, 0x0f, 0x00, 0x00, 0x00, 0x40, 0x00, 0x00, 0x00, 
0x03, 0x00, 0x00, 0x00, 0xff, 0xff, 0xff, 0xff, 0x8f, 0x01, 0x00, 0x00, 
0x03, 0x00, 0x00, 0x00, 0x10, 0xfb, 0xff, 0xff, 0x20, 0x00, 0x00, 0x00, 
0x73, 0x65, 0x71, 0x75, 0x65, 0x6e, 0x74, 0x69, 0x61, 0x6c, 0x5f, 0x36, 
0x34, 0x2f, 0x72, 0x65, 0x73, 0x68, 0x61, 0x70, 0x65, 0x5f, 0x36, 0x34, 
0x2f, 0x52, 0x65, 0x73, 0x68, 0x61, 0x70, 0x65, 0x00, 0x00, 0x00, 0x00, 
0x03, 0x00, 0x00, 0x00, 0x01, 0x00, 0x00, 0x00, 0x8f, 0x01, 0x00, 0x00, 
0x03, 0x00, 0x00, 0x00, 0x1a, 0xfd, 0xff, 0xff, 0x00, 0x00, 0x00, 0x01, 
0x14, 0x00, 0x00, 0x00, 0x14, 0x00, 0x00, 0x00, 0x0e, 0x00, 0x00, 0x00, 
0x00, 0x00, 0x00, 0x02, 0x34, 0x00, 0x00, 0x00, 0x68, 0xfb, 0xff, 0xff, 
0x26, 0x00, 0x00, 0x00, 0x73, 0x65, 0x71, 0x75, 0x65, 0x6e, 0x74, 0x69, 
0x61, 0x6c, 0x5f, 0x36, 0x34, 0x2f, 0x72, 0x65, 0x73, 0x68, 0x61, 0x70, 
0x65, 0x5f, 0x36, 0x34, 0x2f, 0x52, 0x65, 0x73, 0x68, 0x61, 0x70, 0x65, 
0x2f, 0x73, 0x68, 0x61, 0x70, 0x65, 0x00, 0x00, 0x01, 0x00, 0x00, 0x00, 
0x03, 0x00, 0x00, 0x00, 0x6e, 0xfd, 0xff, 0xff, 0x00, 0x00, 0x00, 0x01, 
0x14, 0x00, 0x00, 0x00, 0x14, 0x00, 0x00, 0x00, 0x0d, 0x00, 0x00, 0x00, 
0x00, 0x00, 0x00, 0x02, 0x34, 0x00, 0x00, 0x00, 0xbc, 0xfb, 0xff, 0xff, 
0x26, 0x00, 0x00, 0x00, 0x73, 0x65, 0x71, 0x75, 0x65, 0x6e, 0x74, 0x69, 
0x61, 0x6c, 0x5f, 0x36, 0x34, 0x2f, 0x72, 0x65, 0x73, 0x68, 0x61, 0x70, 
0x65, 0x5f, 0x36, 0x34, 0x2f, 0x73, 0x74, 0x72, 0x69, 0x64, 0x65, 0x64, 
0x5f, 0x73, 0x6c, 0x69, 0x63, 0x65, 0x00, 0x00, 0x00, 0x00, 0x00, 0x00, 
0xbe, 0xfd, 0xff, 0xff, 0x00, 0x00, 0x00, 0x01, 0x14, 0x00, 0x00, 0x00, 
0x14, 0x00, 0x00, 0x00, 0x0c, 0x00, 0x00, 0x00, 0x00, 0x00, 0x00, 0x02, 
0x2c, 0x00, 0x00, 0x00, 0x0c, 0xfc, 0xff, 0xff, 0x1e, 0x00, 0x00, 0x00, 
0x73, 0x65, 0x71, 0x75, 0x65, 0x6e, 0x74, 0x69, 0x61, 0x6c, 0x5f, 0x36, 
0x34, 0x2f, 0x72, 0x65, 0x73, 0x68, 0x61, 0x70, 0x65, 0x5f, 0x36, 0x34, 
0x2f, 0x53, 0x68, 0x61, 0x70, 0x65, 0x00, 0x00, 0x01, 0x00, 0x00, 0x00, 
0x02, 0x00, 0x00, 0x00, 0xea, 0xfc, 0xff, 0xff, 0x00, 0x00, 0x00, 0x01, 
0x10, 0x00, 0x00, 0x00, 0x10, 0x00, 0x00, 0x00, 0x0b, 0x00, 0x00, 0x00, 
0x2c, 0x00, 0x00, 0x00, 0x54, 0xfc, 0xff, 0xff, 0x1d, 0x00, 0x00, 0x00, 
0x73, 0x65, 0x71, 0x75, 0x65, 0x6e, 0x74, 0x69, 0x61, 0x6c, 0x5f, 0x36, 
0x34, 0x2f, 0x64, 0x65, 0x6e, 0x73, 0x65, 0x5f, 0x36, 0x34, 0x2f, 0x4d, 
0x61, 0x74, 0x4d, 0x75, 0x6c, 0x00, 0x00, 0x00, 0x02, 0x00, 0x00, 0x00, 
0x01, 0x00, 0x00, 0x00, 0x4e, 0x09, 0x00, 0x00, 0x56, 0xfe, 0xff, 0xff, 
0x00, 0x00, 0x00, 0x01, 0x14, 0x00, 0x00, 0x00, 0x14, 0x00, 0x00, 0x00, 
0x0a, 0x00, 0x00, 0x00, 0x00, 0x00, 0x00, 0x02, 0x3c, 0x00, 0x00, 0x00, 
0xa4, 0xfc, 0xff, 0xff, 0x2d, 0x00, 0x00, 0x00, 0x73, 0x65, 0x71, 0x75, 
0x65, 0x6e, 0x74, 0x69, 0x61, 0x6c, 0x5f, 0x36, 0x34, 0x2f, 0x63, 0x6f, 
0x6e, 0x76, 0x31, 0x64, 0x5f, 0x36, 0x34, 0x2f, 0x43, 0x6f, 0x6e, 0x76, 
0x31, 0x44, 0x2f, 0x45, 0x78, 0x70, 0x61, 0x6e, 0x64, 0x44, 0x69, 0x6d, 
0x73, 0x2f, 0x64, 0x69, 0x6d, 0x00, 0x00, 0x00, 0x00, 0x00, 0x00, 0x00, 
0xae, 0xfe, 0xff, 0xff, 0x00, 0x00, 0x00, 0x01, 0x14, 0x00, 0x00, 0x00, 
0x14, 0x00, 0x00, 0x00, 0x09, 0x00, 0x00, 0x00, 0x00, 0x00, 0x00, 0x02, 
0x2c, 0x00, 0x00, 0x00, 0xfc, 0xfc, 0xff, 0xff, 0x1e, 0x00, 0x00, 0x00, 
0x73, 0x65, 0x71, 0x75, 0x65, 0x6e, 0x74, 0x69, 0x61, 0x6c, 0x5f, 0x36, 
0x34, 0x2f, 0x66, 0x6c, 0x61, 0x74, 0x74, 0x65, 0x6e, 0x5f, 0x36, 0x34, 
0x2f, 0x43, 0x6f, 0x6e, 0x73, 0x74, 0x00, 0x00, 0x01, 0x00, 0x00, 0x00, 
0x02, 0x00, 0x00, 0x00, 0xfa, 0xfe, 0xff, 0xff, 0x00, 0x00, 0x00, 0x01, 
0x14, 0x00, 0x00, 0x00, 0x14, 0x00, 0x00, 0x00, 0x08, 0x00, 0x00, 0x00, 
0x00, 0x00, 0x00, 0x02, 0x38, 0x00, 0x00, 0x00, 0x48, 0xfd, 0xff, 0xff, 
0x28, 0x00, 0x00, 0x00, 0x73, 0x65, 0x71, 0x75, 0x65, 0x6e, 0x74, 0x69, 
0x61, 0x6c, 0x5f, 0x36, 0x34, 0x2f, 0x72, 0x65, 0x73, 0x68, 0x61, 0x70, 
0x65, 0x5f, 0x36, 0x34, 0x2f, 0x52, 0x65, 0x73, 0x68, 0x61, 0x70, 0x65, 
0x2f, 0x73, 0x68, 0x61, 0x70, 0x65, 0x2f, 0x31, 0x00, 0x00, 0x00, 0x00, 
0x00, 0x00, 0x00, 0x00, 0x4e, 0xff, 0xff, 0xff, 0x00, 0x00, 0x00, 0x01, 
0x14, 0x00, 0x00, 0x00, 0x14, 0x00, 0x00, 0x00, 0x07, 0x00, 0x00, 0x00, 
0x00, 0x00, 0x00, 0x02, 0x38, 0x00, 0x00, 0x00, 0x9c, 0xfd, 0xff, 0xff, 
0x28, 0x00, 0x00, 0x00, 0x73, 0x65, 0x71, 0x75, 0x65, 0x6e, 0x74, 0x69, 
0x61, 0x6c, 0x5f, 0x36, 0x34, 0x2f, 0x72, 0x65, 0x73, 0x68, 0x61, 0x70, 
0x65, 0x5f, 0x36, 0x34, 0x2f, 0x52, 0x65, 0x73, 0x68, 0x61, 0x70, 0x65, 
0x2f, 0x73, 0x68, 0x61, 0x70, 0x65, 0x2f, 0x32, 0x00, 0x00, 0x00, 0x00, 
0x00, 0x00, 0x00, 0x00, 0xa2, 0xff, 0xff, 0xff, 0x00, 0x00, 0x00, 0x01, 
0x14, 0x00, 0x00, 0x00, 0x14, 0x00, 0x00, 0x00, 0x06, 0x00, 0x00, 0x00, 
0x00, 0x00, 0x00, 0x02, 0x3c, 0x00, 0x00, 0x00, 0xf0, 0xfd, 0xff, 0xff, 
0x2c, 0x00, 0x00, 0x00, 0x73, 0x65, 0x71, 0x75, 0x65, 0x6e, 0x74, 0x69, 
0x61, 0x6c, 0x5f, 0x36, 0x34, 0x2f, 0x72, 0x65, 0x73, 0x68, 0x61, 0x70, 
0x65, 0x5f, 0x36, 0x34, 0x2f, 0x73, 0x74, 0x72, 0x69, 0x64, 0x65, 0x64, 
0x5f, 0x73, 0x6c, 0x69, 0x63, 0x65, 0x2f, 0x73, 0x74, 0x61, 0x63, 0x6b, 
0x00, 0x00, 0x00, 0x00, 0x01, 0x00, 0x00, 0x00, 0x01, 0x00, 0x00, 0x00, 
0x00, 0x00, 0x16, 0x00, 0x1c, 0x00, 0x18, 0x00, 0x17, 0x00, 0x10, 0x00, 
0x0c, 0x00, 0x08, 0x00, 0x00, 0x00, 0x00, 0x00, 0x00, 0x00, 0x07, 0x00, 
0x16, 0x00, 0x00, 0x00, 0x00, 0x00, 0x00, 0x01, 0x14, 0x00, 0x00, 0x00, 
0x14, 0x00, 0x00, 0x00, 0x05, 0x00, 0x00, 0x00, 0x00, 0x00, 0x00, 0x02, 
0x3c, 0x00, 0x00, 0x00, 0x64, 0xfe, 0xff, 0xff, 0x2e, 0x00, 0x00, 0x00, 
0x73, 0x65, 0x71, 0x75, 0x65, 0x6e, 0x74, 0x69, 0x61, 0x6c, 0x5f, 0x36, 
0x34, 0x2f, 0x72, 0x65, 0x73, 0x68, 0x61, 0x70, 0x65, 0x5f, 0x36, 0x34, 
0x2f, 0x73, 0x74, 0x72, 0x69, 0x64, 0x65, 0x64, 0x5f, 0x73, 0x6c, 0x69, 
0x63, 0x65, 0x2f, 0x73, 0x74, 0x61, 0x63, 0x6b, 0x5f, 0x31, 0x00, 0x00, 
0x01, 0x00, 0x00, 0x00, 0x01, 0x00, 0x00, 0x00, 0x52, 0xff, 0xff, 0xff, 
0x00, 0x00, 0x00, 0x01, 0x10, 0x00, 0x00, 0x00, 0x10, 0x00, 0x00, 0x00, 
0x04, 0x00, 0x00, 0x00, 0x3c, 0x00, 0x00, 0x00, 0xbc, 0xfe, 0xff, 0xff, 
0x2d, 0x00, 0x00, 0x00, 0x73, 0x65, 0x71, 0x75, 0x65, 0x6e, 0x74, 0x69, 
0x61, 0x6c, 0x5f, 0x36, 0x34, 0x2f, 0x64, 0x65, 0x6e, 0x73, 0x65, 0x5f, 
0x36, 0x34, 0x2f, 0x42, 0x69, 0x61, 0x73, 0x41, 0x64, 0x64, 0x2f, 0x52, 
0x65, 0x61, 0x64, 0x56, 0x61, 0x72, 0x69, 0x61, 0x62, 0x6c, 0x65, 0x4f, 
0x70, 0x00, 0x00, 0x00, 0x01, 0x00, 0x00, 0x00, 0x01, 0x00, 0x00, 0x00, 
0xaa, 0xff, 0xff, 0xff, 0x00, 0x00, 0x00, 0x01, 0x10, 0x00, 0x00, 0x00, 
0x10, 0x00, 0x00, 0x00, 0x03, 0x00, 0x00, 0x00, 0x2c, 0x00, 0x00, 0x00, 
0x14, 0xff, 0xff, 0xff, 0x1e, 0x00, 0x00, 0x00, 0x73, 0x65, 0x71, 0x75, 
0x65, 0x6e, 0x74, 0x69, 0x61, 0x6c, 0x5f, 0x36, 0x34, 0x2f, 0x63, 0x6f, 
0x6e, 0x76, 0x31, 0x64, 0x5f, 0x36, 0x34, 0x2f, 0x43, 0x6f, 0x6e, 0x76, 
0x31, 0x44, 0x00, 0x00, 0x04, 0x00, 0x00, 0x00, 0x06, 0x00, 0x00, 0x00, 
0x01, 0x00, 0x00, 0x00, 0x03, 0x00, 0x00, 0x00, 0x03, 0x00, 0x00, 0x00, 
0x00, 0x00, 0x16, 0x00, 0x18, 0x00, 0x14, 0x00, 0x00, 0x00, 0x10, 0x00, 
0x0c, 0x00, 0x08, 0x00, 0x00, 0x00, 0x00, 0x00, 0x00, 0x00, 0x07, 0x00, 
0x16, 0x00, 0x00, 0x00, 0x00, 0x00, 0x00, 0x01, 0x10, 0x00, 0x00, 0x00, 
0x10, 0x00, 0x00, 0x00, 0x02, 0x00, 0x00, 0x00, 0x3c, 0x00, 0x00, 0x00, 
0x80, 0xff, 0xff, 0xff, 0x2e, 0x00, 0x00, 0x00, 0x73, 0x65, 0x71, 0x75, 
0x65, 0x6e, 0x74, 0x69, 0x61, 0x6c, 0x5f, 0x36, 0x34, 0x2f, 0x63, 0x6f, 
0x6e, 0x76, 0x31, 0x64, 0x5f, 0x36, 0x34, 0x2f, 0x42, 0x69, 0x61, 0x73, 
0x41, 0x64, 0x64, 0x2f, 0x52, 0x65, 0x61, 0x64, 0x56, 0x61, 0x72, 0x69, 
0x61, 0x62, 0x6c, 0x65, 0x4f, 0x70, 0x00, 0x00, 0x01, 0x00, 0x00, 0x00, 
0x06, 0x00, 0x00, 0x00, 0x00, 0x00, 0x16, 0x00, 0x1c, 0x00, 0x18, 0x00, 
0x00, 0x00, 0x14, 0x00, 0x10, 0x00, 0x0c, 0x00, 0x00, 0x00, 0x00, 0x00, 
0x08, 0x00, 0x07, 0x00, 0x16, 0x00, 0x00, 0x00, 0x00, 0x00, 0x00, 0x01, 
0x14, 0x00, 0x00, 0x00, 0x20, 0x00, 0x00, 0x00, 0x20, 0x00, 0x00, 0x00, 
0x01, 0x00, 0x00, 0x00, 0x40, 0x00, 0x00, 0x00, 0x02, 0x00, 0x00, 0x00, 
0xff, 0xff, 0xff, 0xff, 0xad, 0x04, 0x00, 0x00, 0x04, 0x00, 0x04, 0x00, 
0x04, 0x00, 0x00, 0x00, 0x22, 0x00, 0x00, 0x00, 0x73, 0x65, 0x72, 0x76, 
0x69, 0x6e, 0x67, 0x5f, 0x64, 0x65, 0x66, 0x61, 0x75, 0x6c, 0x74, 0x5f, 
0x72, 0x65, 0x73, 0x68, 0x61, 0x70, 0x65, 0x5f, 0x36, 0x34, 0x5f, 0x69, 
0x6e, 0x70, 0x75, 0x74, 0x3a, 0x30, 0x00, 0x00, 0x02, 0x00, 0x00, 0x00, 
0x01, 0x00, 0x00, 0x00, 0xad, 0x04, 0x00, 0x00, 0x08, 0x00, 0x00, 0x00, 
0x80, 0x00, 0x00, 0x00, 0x64, 0x00, 0x00, 0x00, 0x54, 0x00, 0x00, 0x00, 
0x44, 0x00, 0x00, 0x00, 0x34, 0x00, 0x00, 0x00, 0x24, 0x00, 0x00, 0x00, 
0x14, 0x00, 0x00, 0x00, 0x04, 0x00, 0x00, 0x00, 0xac, 0xff, 0xff, 0xff, 
0x0e, 0x00, 0x00, 0x00, 0x00, 0x00, 0x00, 0x0e, 0xb8, 0xff, 0xff, 0xff, 
0x09, 0x00, 0x00, 0x00, 0x00, 0x00, 0x00, 0x09, 0xc4, 0xff, 0xff, 0xff, 
0x03, 0x00, 0x00, 0x00, 0x00, 0x00, 0x00, 0x03, 0xd0, 0xff, 0xff, 0xff, 
0x46, 0x00, 0x00, 0x00, 0x00, 0x00, 0x00, 0x46, 0xdc, 0xff, 0xff, 0xff, 
0x16, 0x00, 0x00, 0x00, 0x00, 0x00, 0x00, 0x16, 0xe8, 0xff, 0xff, 0xff, 
0x53, 0x00, 0x00, 0x00, 0x00, 0x00, 0x00, 0x53, 0xf4, 0xff, 0xff, 0xff, 
0x2d, 0x00, 0x00, 0x00, 0x00, 0x00, 0x00, 0x2d, 0x0c, 0x00, 0x0c, 0x00, 
0x0b, 0x00, 0x00, 0x00, 0x00, 0x00, 0x04, 0x00, 0x0c, 0x00, 0x00, 0x00, 
0x4d, 0x00, 0x00, 0x00, 0x00, 0x00, 0x00, 0x4d, };
unsigned int model_tflite_len = 13400;

unsigned char* get_model_data() {
  return (unsigned char*)g_tof_detector_model_data;
}
